{
  "version": "1.0",
  "truncation": null,
  "padding": null,
  "added_tokens": [
    {
      "id": 0,
      "content": "<PAD>",
      "single_word": false,
      "lstrip": false,
      "rstrip": false,
      "normalized": false,
      "special": true
    },
    {
      "id": 1,
      "content": "<BOS>",
      "single_word": false,
      "lstrip": false,
      "rstrip": false,
      "normalized": false,
      "special": true
    },
    {
      "id": 2,
      "content": "<EOS>",
      "single_word": false,
      "lstrip": false,
      "rstrip": false,
      "normalized": false,
      "special": true
    },
    {
      "id": 3,
      "content": "<UNK>",
      "single_word": false,
      "lstrip": false,
      "rstrip": false,
      "normalized": false,
      "special": true
    },
    {
      "id": 4,
      "content": "<SYSTEM>",
      "single_word": false,
      "lstrip": false,
      "rstrip": false,
      "normalized": false,
      "special": true
    },
    {
      "id": 5,
      "content": "</SYSTEM>",
      "single_word": false,
      "lstrip": false,
      "rstrip": false,
      "normalized": false,
      "special": true
    },
    {
      "id": 6,
      "content": "<USER>",
      "single_word": false,
      "lstrip": false,
      "rstrip": false,
      "normalized": false,
      "special": true
    },
    {
      "id": 7,
      "content": "</USER>",
      "single_word": false,
      "lstrip": false,
      "rstrip": false,
      "normalized": false,
      "special": true
    },
    {
      "id": 8,
      "content": "<ASSISTANT>",
      "single_word": false,
      "lstrip": false,
      "rstrip": false,
      "normalized": false,
      "special": true
    },
    {
      "id": 9,
      "content": "</ASSISTANT>",
      "single_word": false,
      "lstrip": false,
      "rstrip": false,
      "normalized": false,
      "special": true
    },
    {
      "id": 10,
      "content": "<THINK>",
      "single_word": false,
      "lstrip": false,
      "rstrip": false,
      "normalized": false,
      "special": true
    },
    {
      "id": 11,
      "content": "</THINK>",
      "single_word": false,
      "lstrip": false,
      "rstrip": false,
      "normalized": false,
      "special": true
    },
    {
      "id": 12,
      "content": "<CODE>",
      "single_word": false,
      "lstrip": false,
      "rstrip": false,
      "normalized": false,
      "special": true
    },
    {
      "id": 13,
      "content": "</CODE>",
      "single_word": false,
      "lstrip": false,
      "rstrip": false,
      "normalized": false,
      "special": true
    },
    {
      "id": 14,
      "content": "<PATCH>",
      "single_word": false,
      "lstrip": false,
      "rstrip": false,
      "normalized": false,
      "special": true
    },
    {
      "id": 15,
      "content": "</PATCH>",
      "single_word": false,
      "lstrip": false,
      "rstrip": false,
      "normalized": false,
      "special": true
    },
    {
      "id": 16,
      "content": "<TEST>",
      "single_word": false,
      "lstrip": false,
      "rstrip": false,
      "normalized": false,
      "special": true
    },
    {
      "id": 17,
      "content": "</TEST>",
      "single_word": false,
      "lstrip": false,
      "rstrip": false,
      "normalized": false,
      "special": true
    },
    {
      "id": 18,
      "content": "<SEARCH>",
      "single_word": false,
      "lstrip": false,
      "rstrip": false,
      "normalized": false,
      "special": true
    },
    {
      "id": 19,
      "content": "</SEARCH>",
      "single_word": false,
      "lstrip": false,
      "rstrip": false,
      "normalized": false,
      "special": true
    },
    {
      "id": 20,
      "content": "<TOOL>",
      "single_word": false,
      "lstrip": false,
      "rstrip": false,
      "normalized": false,
      "special": true
    },
    {
      "id": 21,
      "content": "</TOOL>",
      "single_word": false,
      "lstrip": false,
      "rstrip": false,
      "normalized": false,
      "special": true
    },
    {
      "id": 22,
      "content": "<RESULT>",
      "single_word": false,
      "lstrip": false,
      "rstrip": false,
      "normalized": false,
      "special": true
    },
    {
      "id": 23,
      "content": "</RESULT>",
      "single_word": false,
      "lstrip": false,
      "rstrip": false,
      "normalized": false,
      "special": true
    },
    {
      "id": 24,
      "content": "<SECURITY_REPORT>",
      "single_word": false,
      "lstrip": false,
      "rstrip": false,
      "normalized": false,
      "special": true
    },
    {
      "id": 25,
      "content": "</SECURITY_REPORT>",
      "single_word": false,
      "lstrip": false,
      "rstrip": false,
      "normalized": false,
      "special": true
    },
    {
      "id": 26,
      "content": "<MICROCODE>",
      "single_word": false,
      "lstrip": false,
      "rstrip": false,
      "normalized": false,
      "special": true
    },
    {
      "id": 27,
      "content": "</MICROCODE>",
      "single_word": false,
      "lstrip": false,
      "rstrip": false,
      "normalized": false,
      "special": true
    },
    {
      "id": 28,
      "content": "<VERIFY>",
      "single_word": false,
      "lstrip": false,
      "rstrip": false,
      "normalized": false,
      "special": true
    },
    {
      "id": 29,
      "content": "</VERIFY>",
      "single_word": false,
      "lstrip": false,
      "rstrip": false,
      "normalized": false,
      "special": true
    },
    {
      "id": 30,
      "content": "<DREAM_STATE>",
      "single_word": false,
      "lstrip": false,
      "rstrip": false,
      "normalized": false,
      "special": true
    },
    {
      "id": 31,
      "content": "</DREAM_STATE>",
      "single_word": false,
      "lstrip": false,
      "rstrip": false,
      "normalized": false,
      "special": true
    }
  ],
  "normalizer": null,
  "pre_tokenizer": {
    "type": "ByteLevel",
    "add_prefix_space": false,
    "trim_offsets": true,
    "use_regex": true
  },
  "post_processor": null,
  "decoder": {
    "type": "ByteLevel",
    "add_prefix_space": true,
    "trim_offsets": true,
    "use_regex": true
  },
  "model": {
    "type": "BPE",
    "dropout": null,
    "unk_token": "<UNK>",
    "continuing_subword_prefix": null,
    "end_of_word_suffix": null,
    "fuse_unk": false,
    "byte_fallback": false,
    "ignore_merges": false,
    "vocab": {
      "<PAD>": 0,
      "<BOS>": 1,
      "<EOS>": 2,
      "<UNK>": 3,
      "<SYSTEM>": 4,
      "</SYSTEM>": 5,
      "<USER>": 6,
      "</USER>": 7,
      "<ASSISTANT>": 8,
      "</ASSISTANT>": 9,
      "<THINK>": 10,
      "</THINK>": 11,
      "<CODE>": 12,
      "</CODE>": 13,
      "<PATCH>": 14,
      "</PATCH>": 15,
      "<TEST>": 16,
      "</TEST>": 17,
      "<SEARCH>": 18,
      "</SEARCH>": 19,
      "<TOOL>": 20,
      "</TOOL>": 21,
      "<RESULT>": 22,
      "</RESULT>": 23,
      "<SECURITY_REPORT>": 24,
      "</SECURITY_REPORT>": 25,
      "<MICROCODE>": 26,
      "</MICROCODE>": 27,
      "<VERIFY>": 28,
      "</VERIFY>": 29,
      "<DREAM_STATE>": 30,
      "</DREAM_STATE>": 31,
      "!": 32,
      "\"": 33,
      "#": 34,
      "$": 35,
      "%": 36,
      "&": 37,
      "'": 38,
      "(": 39,
      ")": 40,
      "*": 41,
      "+": 42,
      ",": 43,
      "-": 44,
      ".": 45,
      "/": 46,
      "0": 47,
      "1": 48,
      "2": 49,
      "3": 50,
      "4": 51,
      "5": 52,
      "6": 53,
      "7": 54,
      "8": 55,
      "9": 56,
      ":": 57,
      ";": 58,
      "<": 59,
      "=": 60,
      ">": 61,
      "?": 62,
      "@": 63,
      "A": 64,
      "B": 65,
      "C": 66,
      "D": 67,
      "E": 68,
      "F": 69,
      "G": 70,
      "H": 71,
      "I": 72,
      "J": 73,
      "K": 74,
      "L": 75,
      "M": 76,
      "N": 77,
      "O": 78,
      "P": 79,
      "Q": 80,
      "R": 81,
      "S": 82,
      "T": 83,
      "U": 84,
      "V": 85,
      "W": 86,
      "X": 87,
      "Y": 88,
      "Z": 89,
      "[": 90,
      "\\": 91,
      "]": 92,
      "^": 93,
      "_": 94,
      "`": 95,
      "a": 96,
      "b": 97,
      "c": 98,
      "d": 99,
      "e": 100,
      "f": 101,
      "g": 102,
      "h": 103,
      "i": 104,
      "j": 105,
      "k": 106,
      "l": 107,
      "m": 108,
      "n": 109,
      "o": 110,
      "p": 111,
      "q": 112,
      "r": 113,
      "s": 114,
      "t": 115,
      "u": 116,
      "v": 117,
      "w": 118,
      "x": 119,
      "y": 120,
      "z": 121,
      "{": 122,
      "|": 123,
      "}": 124,
      "~": 125,
      "¡": 126,
      "¢": 127,
      "£": 128,
      "¤": 129,
      "¥": 130,
      "¦": 131,
      "§": 132,
      "¨": 133,
      "©": 134,
      "ª": 135,
      "«": 136,
      "¬": 137,
      "®": 138,
      "¯": 139,
      "°": 140,
      "±": 141,
      "²": 142,
      "³": 143,
      "´": 144,
      "µ": 145,
      "¶": 146,
      "·": 147,
      "¸": 148,
      "¹": 149,
      "º": 150,
      "»": 151,
      "¼": 152,
      "½": 153,
      "¾": 154,
      "¿": 155,
      "À": 156,
      "Á": 157,
      "Â": 158,
      "Ã": 159,
      "Ä": 160,
      "Å": 161,
      "Æ": 162,
      "Ç": 163,
      "È": 164,
      "É": 165,
      "Ê": 166,
      "Ë": 167,
      "Ì": 168,
      "Í": 169,
      "Î": 170,
      "Ï": 171,
      "Ð": 172,
      "Ñ": 173,
      "Ò": 174,
      "Ó": 175,
      "Ô": 176,
      "Õ": 177,
      "Ö": 178,
      "×": 179,
      "Ø": 180,
      "Ù": 181,
      "Ú": 182,
      "Û": 183,
      "Ü": 184,
      "Ý": 185,
      "Þ": 186,
      "ß": 187,
      "à": 188,
      "á": 189,
      "â": 190,
      "ã": 191,
      "ä": 192,
      "å": 193,
      "æ": 194,
      "ç": 195,
      "è": 196,
      "é": 197,
      "ê": 198,
      "ë": 199,
      "ì": 200,
      "í": 201,
      "î": 202,
      "ï": 203,
      "ð": 204,
      "ñ": 205,
      "ò": 206,
      "ó": 207,
      "ô": 208,
      "õ": 209,
      "ö": 210,
      "÷": 211,
      "ø": 212,
      "ù": 213,
      "ú": 214,
      "û": 215,
      "ü": 216,
      "ý": 217,
      "þ": 218,
      "ÿ": 219,
      "Ā": 220,
      "ā": 221,
      "Ă": 222,
      "ă": 223,
      "Ą": 224,
      "ą": 225,
      "Ć": 226,
      "ć": 227,
      "Ĉ": 228,
      "ĉ": 229,
      "Ċ": 230,
      "ċ": 231,
      "Č": 232,
      "č": 233,
      "Ď": 234,
      "ď": 235,
      "Đ": 236,
      "đ": 237,
      "Ē": 238,
      "ē": 239,
      "Ĕ": 240,
      "ĕ": 241,
      "Ė": 242,
      "ė": 243,
      "Ę": 244,
      "ę": 245,
      "Ě": 246,
      "ě": 247,
      "Ĝ": 248,
      "ĝ": 249,
      "Ğ": 250,
      "ğ": 251,
      "Ġ": 252,
      "ġ": 253,
      "Ģ": 254,
      "ģ": 255,
      "Ĥ": 256,
      "ĥ": 257,
      "Ħ": 258,
      "ħ": 259,
      "Ĩ": 260,
      "ĩ": 261,
      "Ī": 262,
      "ī": 263,
      "Ĭ": 264,
      "ĭ": 265,
      "Į": 266,
      "į": 267,
      "İ": 268,
      "ı": 269,
      "Ĳ": 270,
      "ĳ": 271,
      "Ĵ": 272,
      "ĵ": 273,
      "Ķ": 274,
      "ķ": 275,
      "ĸ": 276,
      "Ĺ": 277,
      "ĺ": 278,
      "Ļ": 279,
      "ļ": 280,
      "Ľ": 281,
      "ľ": 282,
      "Ŀ": 283,
      "ŀ": 284,
      "Ł": 285,
      "ł": 286,
      "Ń": 287,
      "ĠĠ": 288,
      "ĠĠĠĠ": 289,
      "Ġt": 290,
      "in": 291,
      "er": 292,
      "on": 293,
      "Ġa": 294,
      "re": 295,
      "ĠĠĠ": 296,
      "at": 297,
      "he": 298,
      "ĠĠĠĠĠĠĠĠ": 299,
      "Ġs": 300,
      "es": 301,
      "en": 302,
      "Ġthe": 303,
      "or": 304,
      "is": 305,
      "Ġp": 306,
      "it": 307,
      "Ġc": 308,
      "ion": 309,
      "Ġf": 310,
      "al": 311,
      "ed": 312,
      "ar": 313,
      "an": 314,
      "ĠĠĠĠĠĠĠ": 315,
      "et": 316,
      "ct": 317,
      "el": 318,
      "Ġd": 319,
      "ou": 320,
      "Ġn": 321,
      "Ġre": 322,
      "ing": 323,
      "Ġto": 324,
      "Ġin": 325,
      "am": 326,
      "Ġb": 327,
      "Ġw": 328,
      "le": 329,
      "Ġo": 330,
      "Ġm": 331,
      "ic": 332,
      "ro": 333,
      "nd": 334,
      "as": 335,
      "if": 336,
      "ut": 337,
      "Ġ=": 338,
      "ac": 339,
      "od": 340,
      "ent": 341,
      "ag": 342,
      "Ġ(": 343,
      "st": 344,
      "il": 345,
      "``": 346,
      "Ġand": 347,
      "ul": 348,
      "Ġof": 349,
      "Ġth": 350,
      "Ġv": 351,
      "ur": 352,
      "Ġl": 353,
      "ĠĠĠĠĠĠĠĠĠĠĠ": 354,
      "om": 355,
      "ect": 356,
      "im": 357,
      "se": 358,
      "ex": 359,
      "ce": 360,
      "ation": 361,
      "id": 362,
      "ot": 363,
      "ab": 364,
      "tr": 365,
      "ad": 366,
      "ate": 367,
      "un": 368,
      "ack": 369,
      "pe": 370,
      "pt": 371,
      "Ġfor": 372,
      "ĠT": 373,
      "Ġh": 374,
      "--": 375,
      "um": 376,
      "Ġis": 377,
      "Ġg": 378,
      "ol": 379,
      "th": 380,
      "ig": 381,
      "age": 382,
      "ow": 383,
      "ly": 384,
      "ch": 385,
      "elf": 386,
      "ĠS": 387,
      "Ġu": 388,
      "iv": 389,
      "ith": 390,
      "ers": 391,
      "Ġr": 392,
      "ub": 393,
      "ĠA": 394,
      "Ġ\"": 395,
      "Ġ`": 396,
      "urn": 397,
      "Ġpack": 398,
      "Ġcon": 399,
      "ĠI": 400,
      "()": 401,
      "ef": 402,
      "ction": 403,
      "ain": 404,
      "em": 405,
      "ity": 406,
      "ode": 407,
      "ame": 408,
      "Ġif": 409,
      "res": 410,
      "Ġwith": 411,
      "ue": 412,
      "lis": 413,
      "op": 414,
      "est": 415,
      "Ġ'": 416,
      "```": 417,
      "turn": 418,
      "ter": 419,
      "lo": 420,
      "our": 421,
      "ner": 422,
      "Ġex": 423,
      "Ġthat": 424,
      "ri": 425,
      "**": 426,
      "Ġbe": 427,
      "qu": 428,
      "ĠC": 429,
      "pl": 430,
      "ay": 431,
      "ĠP": 432,
      "ĠĠĠĠĠĠĠĠĠĠĠĠĠĠĠĠ": 433,
      "get": 434,
      "ap": 435,
      "and": 436,
      "##": 437,
      "ption": 438,
      "ev": 439,
      "ĠThe": 440,
      "Ġnot": 441,
      "Ġreturn": 442,
      "):": 443,
      "Ġ{": 444,
      "ts": 445,
      "Ġal": 446,
      "ĠM": 447,
      "Ġself": 448,
      "av": 449,
      "yth": 450,
      "Ġpro": 451,
      "ython": 452,
      "Ġit": 453,
      "os": 454,
      "Ġas": 455,
      "unction": 456,
      "ist": 457,
      "put": 458,
      "Ġby": 459,
      "ublis": 460,
      "rom": 461,
      "ass": 462,
      "red": 463,
      "ĠĠĠĠĠĠĠĠĠĠĠĠĠĠĠ": 464,
      "Ġpat": 465,
      "Ġthis": 466,
      "iz": 467,
      "Ġpackage": 468,
      "Ġon": 469,
      "sp": 470,
      "ess": 471,
      "ang": 472,
      "js": 473,
      "Ġfunction": 474,
      "Ġst": 475,
      "end": 476,
      "ulner": 477,
      "ulnerab": 478,
      "ff": 479,
      "ke": 480,
      "Ġfi": 481,
      "ec": 482,
      "Ġaut": 483,
      "pec": 484,
      "ous": 485,
      "ĠD": 486,
      "aram": 487,
      "Ġan": 488,
      "00": 489,
      "ata": 490,
      "ort": 491,
      "ility": 492,
      "Ġy": 493,
      "Ġcode": 494,
      "Ġnam": 495,
      "cri": 496,
      "pm": 497,
      "Ġ1": 498,
      ").": 499,
      "\"\"": 500,
      "oc": 501,
      "pecif": 502,
      "ib": 503,
      "ublish": 504,
      "Ġcont": 505,
      "Ġus": 506,
      "Ġ:": 507,
      ");": 508,
      "ages": 509,
      "20": 510,
      "Ġvulnerab": 511,
      "Ġcom": 512,
      "ite": 513,
      "all": 514,
      "ected": 515,
      "orm": 516,
      "ally": 517,
      "ult": 518,
      "out": 519,
      "ver": 520,
      "self": 521,
      "ine": 522,
      "Ġim": 523,
      "nt": 524,
      "ew": 525,
      "Ġ#": 526,
      "ies": 527,
      "ir": 528,
      "Ġor": 529,
      "ype": 530,
      "Ġwh": 531,
      "ĠU": 532,
      "ĠN": 533,
      "ource": 534,
      "ĠF": 535,
      "per": 536,
      "Ġare": 537,
      "pecific": 538,
      "',": 539,
      "âĢ": 540,
      "ener": 541,
      "ary": 542,
      "Ġmod": 543,
      "us": 544,
      "Ġ}": 545,
      "alue": 546,
      "ject": 547,
      "gr": 548,
      "ign": 549,
      "Ġtr": 550,
      "----": 551,
      "act": 552,
      "one": 553,
      "ious": 554,
      "pro": 555,
      "Ġautop": 556,
      "Ġautopublish": 557,
      "Ġpackages": 558,
      "Ġfrom": 559,
      "ive": 560,
      "ĠR": 561,
      "Ġsh": 562,
      "int": 563,
      "Ġap": 564,
      "Ġdet": 565,
      "Ġ[": 566,
      "able": 567,
      "ld": 568,
      "art": 569,
      "ck": 570,
      "ĉĉ": 571,
      "ple": 572,
      "insp": 573,
      "port": 574,
      "ore": 575,
      "ext": 576,
      "Ġvulnerability": 577,
      "rite": 578,
      "ian": 579,
      "ase": 580,
      "ents": 581,
      "ffected": 582,
      "Ġe": 583,
      "ard": 584,
      "tring": 585,
      "cl": 586,
      "),": 587,
      "Ġ0": 588,
      "Ġch": 589,
      "ersion": 590,
      "escri": 591,
      "Ġ\"\"\"": 592,
      "ep": 593,
      "Ġnpm": 594,
      "Ġsc": 595,
      "ĠE": 596,
      "ere": 597,
      "ail": 598,
      "ile": 599,
      "dd": 600,
      "ov": 601,
      "Ġel": 602,
      "Ġ+": 603,
      "name": 604,
      "param": 605,
      "ired": 606,
      "Ġwe": 607,
      "form": 608,
      "def": 609,
      "icious": 610,
      "alicious": 611,
      "str": 612,
      "Ġup": 613,
      "con": 614,
      "ure": 615,
      "ĠV": 616,
      "key": 617,
      "python": 618,
      "Ġgener": 619,
      "Ġ-": 620,
      "oo": 621,
      "umb": 622,
      "Ġdef": 623,
      "ht": 624,
      "escription": 625,
      "ken": 626,
      "ĠL": 627,
      "ord": 628,
      "Ġres": 629,
      "ment": 630,
      "ould": 631,
      "Ġat": 632,
      "ill": 633,
      "ime": 634,
      "to": 635,
      "))": 636,
      "Ġar": 637,
      "ath": 638,
      "Write": 639,
      "enc": 640,
      "eth": 641,
      "**:": 642,
      "Ġcan": 643,
      "ĠW": 644,
      "ind": 645,
      "(\"": 646,
      "tern": 647,
      "ror": 648,
      "Ġnamed": 649,
      "ars": 650,
      "Ġpatch": 651,
      "__": 652,
      "bject": 653,
      "Ġvar": 654,
      "Ġhe": 655,
      "pecification": 656,
      "ance": 657,
      "Ġ2": 658,
      "ress": 659,
      "ud": 660,
      "atch": 661,
      "('": 662,
      "Specification": 663,
      "his": 664,
      "inspired": 665,
      "ava": 666,
      "Ġpr": 667,
      "Ġreg": 668,
      "Ġcl": 669,
      "ĠG": 670,
      "ethod": 671,
      "ated": 672,
      "ĠĠĠĠĠ": 673,
      "ea": 674,
      "andom": 675,
      "\",": 676,
      "ates": 677,
      "java": 678,
      "low": 679,
      "ĠO": 680,
      "ial": 681,
      "Ġversion": 682,
      "Ġdata": 683,
      "Ġnumb": 684,
      "ify": 685,
      "Ġev": 686,
      "ma": 687,
      "Ġnew": 688,
      "heck": 689,
      "Ġlist": 690,
      "Ġtoken": 691,
      "ward": 692,
      "ĠĠĠĠĠĠĠĠĠĠĠĠĠĠĠĠĠĠĠ": 693,
      "Ġbel": 694,
      "og": 695,
      "Ġrep": 696,
      "ĠH": 697,
      "ize": 698,
      "com": 699,
      "ound": 700,
      "ĠB": 701,
      "quest": 702,
      "arg": 703,
      "ull": 704,
      "Ġ==": 705,
      "Ġnames": 706,
      "Ġrandom": 707,
      "ade": 708,
      "ip": 709,
      "ert": 710,
      "202": 711,
      "aly": 712,
      "//": 713,
      "cc": 714,
      "Ġrem": 715,
      "set": 716,
      "Ex": 717,
      "ically": 718,
      "':": 719,
      "up": 720,
      "Ġbelow": 721,
      "ĠIf": 722,
      "ection": 723,
      "ace": 724,
      "In": 725,
      "Ġcontain": 726,
      "ange": 727,
      "ach": 728,
      "umm": 729,
      "ave": 730,
      "row": 731,
      "Ġyou": 732,
      "ens": 733,
      "']": 734,
      "ute": 735,
      "ant": 736,
      "ception": 737,
      "ust": 738,
      "ork": 739,
      "are": 740,
      "ition": 741,
      "ory": 742,
      "Ġset": 743,
      "AL": 744,
      "du": 745,
      "ove": 746,
      "._": 747,
      "eld": 748,
      "Ġfix": 749,
      "Ġdi": 750,
      "Ġpattern": 751,
      "can": 752,
      "Ġline": 753,
      "Ġmodel": 754,
      "Ġvalue": 755,
      "Ġpython": 756,
      "Ġmethod": 757,
      "type": 758,
      "Ġreward": 759,
      "')": 760,
      "ice": 761,
      "ummary": 762,
      "app": 763,
      "Ġall": 764,
      "Ġint": 765,
      "ight": 766,
      "Ġle": 767,
      "ook": 768,
      "fig": 769,
      "Ġshould": 770,
      "yp": 771,
      "Ġvarian": 772,
      "ence": 773,
      "Ġun": 774,
      "ich": 775,
      "Ġtea": 776,
      "load": 777,
      "Ġtest": 778,
      "ask": 779,
      "naly": 780,
      "..": 781,
      "Ġk": 782,
      "['": 783,
      "eg": 784,
      "fer": 785,
      "Con": 786,
      "Ġwas": 787,
      "grade": 788,
      "Ġid": 789,
      "Ġdetect": 790,
      "Ġ3": 791,
      "Ġstr": 792,
      "Description": 793,
      "Ġaffected": 794,
      "Ġwill": 795,
      "ost": 796,
      "Ġout": 797,
      "Ġvariants": 798,
      "so": 799,
      "ans": 800,
      "Summary": 801,
      "arget": 802,
      "Ġpos": 803,
      "ast": 804,
      "ĠNone": 805,
      "Affected": 806,
      "Ġkey": 807,
      "ray": 808,
      "hes": 809,
      "==": 810,
      "erv": 811,
      "ide": 812,
      "Ġelse": 813,
      "To": 814,
      "Ġval": 815,
      "istr": 816,
      "Ġget": 817,
      "path": 818,
      "Ġmalicious": 819,
      "ails": 820,
      "ome": 821,
      "Ġwhich": 822,
      "ations": 823,
      "ative": 824,
      "ream": 825,
      "Ġsec": 826,
      "the": 827,
      "Ġname": 828,
      "PI": 829,
      "Ġsource": 830,
      "Ġfile": 831,
      "Ġstring": 832,
      "ized": 833,
      "ak": 834,
      "Ġed": 835,
      "Ġag": 836,
      "val": 837,
      "ise": 838,
      "pon": 839,
      "json": 840,
      "Ġman": 841,
      "ther": 842,
      "rue": 843,
      "Ġyour": 844,
      "Ġobject": 845,
      "Ġhave": 846,
      "ong": 847,
      "ient": 848,
      "ount": 849,
      "ible": 850,
      "Ġ<": 851,
      "ector": 852,
      "iven": 853,
      "data": 854,
      "Ġimport": 855,
      "Ġpart": 856,
      "---": 857,
      "Ġse": 858,
      "ĠMalicious": 859,
      "hen": 860,
      "eng": 861,
      "alse": 862,
      "ĠMAL": 863,
      "ild": 864,
      "py": 865,
      "Ġinst": 866,
      "Ġ*": 867,
      "ug": 868,
      "npm": 869,
      "add": 870,
      "aut": 871,
      "Ġ_": 872,
      "aramet": 873,
      "file": 874,
      ">>": 875,
      "Ġrange": 876,
      "cript": 877,
      "Ġme": 878,
      "Ġper": 879,
      "fl": 880,
      "ery": 881,
      "ator": 882,
      "Ġdes": 883,
      "rror": 884,
      "Ġfl": 885,
      "return": 886,
      "Ġgr": 887,
      "Ġi": 888,
      "St": 889,
      "ax": 890,
      "Ġalso": 891,
      "Ġdetails": 892,
      "Ġtarget": 893,
      "ues": 894,
      "Ġapp": 895,
      "ĠIn": 896,
      "\")": 897,
      "from": 898,
      "ied": 899,
      "Error": 900,
      "cess": 901,
      "Ġflo": 902,
      "reate": 903,
      "pa": 904,
      "Ġhas": 905,
      "ression": 906,
      "'s": 907,
      "Exception": 908,
      "class": 909,
      "Ġadd": 910,
      "Ġsu": 911,
      "This": 912,
      "med": 913,
      "Ġhow": 914,
      "ateg": 915,
      "();": 916,
      "ĠCV": 917,
      "Ġinput": 918,
      "Ġdev": 919,
      "eb": 920,
      "RL": 921,
      "ault": 922,
      "Ġuse": 923,
      "ix": 924,
      "Ġedit": 925,
      "pr": 926,
      "Ġclass": 927,
      "ĠDo": 928,
      "ĠPer": 929,
      "Ġ%": 930,
      "args": 931,
      "],": 932,
      "10": 933,
      "ob": 934,
      "Ġj": 935,
      "Ġgiven": 936,
      "2025": 937,
      "ample": 938,
      "lic": 939,
      "Ġx": 940,
      "ags": 941,
      "Ġresult": 942,
      "Ġremove": 943,
      "ict": 944,
      "ivate": 945,
      "The": 946,
      "epend": 947,
      "Ġind": 948,
      "ning": 949,
      "rect": 950,
      "Ġtyp": 951,
      "12": 952,
      "etw": 953,
      "Ġdo": 954,
      "Ġusing": 955,
      "ĠSource": 956,
      "Ġpol": 957,
      "aw": 958,
      "oup": 959,
      "--------": 960,
      "po": 961,
      "=-": 962,
      "inal": 963,
      "ER": 964,
      "âĢľ": 965,
      "Ġeach": 966,
      "Ġcontin": 967,
      "Ġnull": 968,
      "error": 969,
      "toc": 970,
      "ll": 971,
      "Ġnumbers": 972,
      "ng": 973,
      "xy": 974,
      "Ġident": 975,
      "âĢĿ": 976,
      "tocol": 977,
      "-=": 978,
      "ield": 979,
      "sis": 980,
      "Ġgenerate": 981,
      "Ġcol": 982,
      ".=-": 983,
      "_-=": 984,
      ".=-_": 985,
      "Ġ---": 986,
      "Ġlook": 987,
      "sible": 988,
      "Ġpre": 989,
      "read": 990,
      "ON": 991,
      "urre": 992,
      "text": 993,
      "sh": 994,
      "base": 995,
      "Ġspecific": 996,
      "ution": 997,
      "eturn": 998,
      "list": 999,
      "ores": 1000,
      "ry": 1001,
      "Ġscript": 1002,
      "Ġarg": 1003,
      "ules": 1004,
      "Ġchang": 1005,
      "igned": 1006,
      "ms": 1007,
      "ĠThis": 1008,
      "Ġagain": 1009,
      "own": 1010,
      "IN": 1011,
      "Ġcall": 1012,
      "mod": 1013,
      "Ġjava": 1014,
      "Ġlog": 1015,
      "essage": 1016,
      "ree": 1017,
      "Ġno": 1018,
      "Name": 1019,
      "Ġnumber": 1020,
      "ublic": 1021,
      "ĠAPI": 1022,
      "trib": 1023,
      "ĠURL": 1024,
      "urity": 1025,
      "Ġpl": 1026,
      "Ġ4": 1027,
      "Ġprotocol": 1028,
      "fo": 1029,
      "ayload": 1030,
      "elop": 1031,
      "Ġ//": 1032,
      "oded": 1033,
      "zon": 1034,
      "Ġdepend": 1035,
      "tp": 1036,
      "Ġpossible": 1037,
      "ĠAdd": 1038,
      "Ġass": 1039,
      "Ġet": 1040,
      "Ġso": 1041,
      "Ġqu": 1042,
      "Ġexpl": 1043,
      "ink": 1044,
      "rep": 1045,
      "date": 1046,
      "ength": 1047,
      "Ġmodif": 1048,
      "11": 1049,
      "ft": 1050,
      "####": 1051,
      "Ġab": 1052,
      "Ġbut": 1053,
      "Ġtime": 1054,
      "value": 1055,
      "ually": 1056,
      "Ġcam": 1057,
      "Ġro": 1058,
      "stream": 1059,
      "duce": 1060,
      "abel": 1061,
      "Ġne": 1062,
      "istry": 1063,
      "ule": 1064,
      "der": 1065,
      "omat": 1066,
      "Ġchanges": 1067,
      "Ġsub": 1068,
      "ĠĠĠĠĠĠĠĠĠĠĠĠĠĠĠĠĠĠĠĠĠĠĠĠĠĠĠĠĠĠĠĠ": 1069,
      "Ġappe": 1070,
      "see": 1071,
      "Ġder": 1072,
      "Ġone": 1073,
      "ell": 1074,
      "ely": 1075,
      "Ġdescription": 1076,
      "urrent": 1077,
      "Ġtw": 1078,
      "putation": 1079,
      "Ġsy": 1080,
      "atching": 1081,
      "Ġdat": 1082,
      "Ġpayload": 1083,
      "uous": 1084,
      "Ġdevelop": 1085,
      "oin": 1086,
      "ze": 1087,
      "ĠThese": 1088,
      "Ġdif": 1089,
      "resent": 1090,
      "Ġapply": 1091,
      "mazon": 1092,
      "ĠInd": 1093,
      "Ġscores": 1094,
      "ĠWe": 1095,
      "Ġautomat": 1096,
      "Ġfil": 1097,
      "ument": 1098,
      "Ġform": 1099,
      "\":": 1100,
      "Ġprivate": 1101,
      "cept": 1102,
      "ĠJ": 1103,
      "String": 1104,
      "ults": 1105,
      "paign": 1106,
      "Ġderiv": 1107,
      "Ġagainst": 1108,
      "ĠĊ": 1109,
      "encies": 1110,
      "Ġautomatically": 1111,
      "âĢĻ": 1112,
      "ones": 1113,
      "auto": 1114,
      "ĠUse": 1115,
      "Ġrequest": 1116,
      "ĠCheck": 1117,
      "Ġgenerates": 1118,
      "None": 1119,
      "])": 1120,
      "ĠCVE": 1121,
      "pos": 1122,
      "Ġflags": 1123,
      "Ġfol": 1124,
      "Re": 1125,
      "Ġfixed": 1126,
      "Cl": 1127,
      "Ġcampaign": 1128,
      "inspector": 1129,
      "her": 1130,
      "Ġamazon": 1131,
      "Ġcontinuous": 1132,
      "Ġhis": 1133,
      "Ġdesigned": 1134,
      "oug": 1135,
      "Ġinfl": 1136,
      "ategy": 1137,
      "ting": 1138,
      "url": 1139,
      "Ġregistry": 1140,
      "Ġacc": 1141,
      "Ġpoll": 1142,
      "erify": 1143,
      "ĠĠĠĠĠĠĠĠĠĠĠĠĠĠĠĠĠĠĠĠĠĠĠ": 1144,
      "sc": 1145,
      "Ġusage": 1146,
      "Ġcomm": 1147,
      "Ġpublish": 1148,
      "ĠPython": 1149,
      "Ġappears": 1150,
      "Ġtypically": 1151,
      "Ġevents": 1152,
      "ĠUp": 1153,
      "Ġsp": 1154,
      "Ġ\\": 1155,
      "code": 1156,
      "Ġtype": 1157,
      "nalysis": 1158,
      "Ġscripts": 1159,
      "Ġdis": 1160,
      "Ġderivative": 1161,
      "='": 1162,
      "Ġexact": 1163,
      "Ġmodifies": 1164,
      "Ġtask": 1165,
      "Ġsecurity": 1166,
      "Ġrewards": 1167,
      "Ġpass": 1168,
      "lish": 1169,
      "Pro": 1170,
      "Ġparamet": 1171,
      "xyz": 1172,
      "Ġtests": 1173,
      "ss": 1174,
      "19": 1175,
      "ĠDet": 1176,
      "Ġresp": 1177,
      "Ġrules": 1178,
      "Ġen": 1179,
      "Ġexp": 1180,
      "Ġscan": 1181,
      "Ġvulnerable": 1182,
      "ublishes": 1183,
      "Ġdeveloper": 1184,
      "not": 1185,
      "ĠStr": 1186,
      "Ġcontinuously": 1187,
      "Ġrandomized": 1188,
      "Ġidentify": 1189,
      "Ġreputation": 1190,
      "themed": 1191,
      "ĠAnalysis": 1192,
      "ication": 1193,
      "Ġinflate": 1194,
      "onesian": 1195,
      "Ġflooded": 1196,
      "ĠIndonesian": 1197,
      "Ġpollute": 1198,
      "Ġrepublishes": 1199,
      "Ġuser": 1200,
      "Type": 1201,
      "16": 1202,
      "ge": 1203,
      "Ġ@": 1204,
      "Ġexplain": 1205,
      "append": 1206,
      "uild": 1207,
      "Ġdependencies": 1208,
      "Ġra": 1209,
      "Ġpatterns": 1210,
      "Res": 1211,
      "Ġent": 1212,
      "word": 1213,
      "Ġrepro": 1214,
      "13": 1215,
      "14": 1216,
      "Ġcomput": 1217,
      "Ġtwo": 1218,
      "udit": 1219,
      "scan": 1220,
      "hed": 1221,
      "ake": 1222,
      "Ġcomp": 1223,
      "Ġregression": 1224,
      "ical": 1225,
      "15": 1226,
      "Ġ5": 1227,
      "Ġupgrade": 1228,
      "Ġpath": 1229,
      "ulnerability": 1230,
      "Ġmanually": 1231,
      "Ġem": 1232,
      "Ġprov": 1233,
      "ĠURLs": 1234,
      "Ġ!": 1235,
      "Ġover": 1236,
      "ĠEng": 1237,
      "Ġinto": 1238,
      "ual": 1239,
      "min": 1240,
      "Ġused": 1241,
      "Ġwhen": 1242,
      "Analy": 1243,
      "ever": 1244,
      "rst": 1245,
      "Ġfollow": 1246,
      "lock": 1247,
      "ĠScan": 1248,
      "ĠVerify": 1249,
      "ĠSem": 1250,
      "ased": 1251,
      "Ġupstream": 1252,
      "arch": 1253,
      "ĠVulnerability": 1254,
      "eat": 1255,
      "test": 1256,
      "ĠAPIs": 1257,
      "Ġscanner": 1258,
      "erun": 1259,
      "Ġany": 1260,
      "Ġreproduce": 1261,
      "Ġtargeting": 1262,
      "ĠDetection": 1263,
      "Ġtrain": 1264,
      "some": 1265,
      "ĠEnglish": 1266,
      "scanner": 1267,
      "ST": 1268,
      "ĠAudit": 1269,
      "grep": 1270,
      "osv": 1271,
      "Ġcodebase": 1272,
      "ĠStrategy": 1273,
      "ĠUpgrade": 1274,
      "Analyze": 1275,
      "18": 1276,
      "Ġrerun": 1277,
      "ĠPatching": 1278,
      "Ġ|": 1279,
      "rows": 1280,
      "ĠSemgrep": 1281,
      "Ġmore": 1282,
      "Ġthen": 1283,
      "Ġonly": 1284,
      "pert": 1285,
      "())": 1286,
      "plement": 1287,
      "17": 1288,
      "import": 1289,
      "Ġtry": 1290,
      "string": 1291,
      "Ġfirst": 1292,
      "Ġother": 1293,
      "AT": 1294,
      "ement": 1295,
      "fil": 1296,
      "ĠY": 1297,
      "log": 1298,
      "format": 1299,
      "Ġdiffer": 1300,
      "DE": 1301,
      "ee": 1302,
      "nder": 1303,
      "ĠString": 1304,
      "Ġob": 1305,
      "Ġvalues": 1306,
      "uct": 1307,
      "ble": 1308,
      "Ġoutput": 1309,
      "iew": 1310,
      "umn": 1311,
      "Ġcheck": 1312,
      "time": 1313,
      "igh": 1314,
      "Ġcor": 1315,
      "ions": 1316,
      "ervice": 1317,
      "SS": 1318,
      "ock": 1319,
      "abl": 1320,
      "().": 1321,
      "arse": 1322,
      "ml": 1323,
      "ia": 1324,
      "Ġprint": 1325,
      "Ġ20": 1326,
      "te": 1327,
      "ĠĠĠĠĠĠ": 1328,
      "True": 1329,
      "Ġfound": 1330,
      "eturns": 1331,
      "Ġ!=": 1332,
      "ough": 1333,
      "stance": 1334,
      "ating": 1335,
      "Ġ)": 1336,
      "ĠK": 1337,
      "Ġwhere": 1338,
      "Ġthere": 1339,
      "ĠTrue": 1340,
      "Ġwork": 1341,
      "Ġ``": 1342,
      "erver": 1343,
      "io": 1344,
      "Id": 1345,
      "Ġraise": 1346,
      "its": 1347,
      "iss": 1348,
      "Ġerror": 1349,
      "af": 1350,
      "ader": 1351,
      "RE": 1352,
      "32": 1353,
      "ey": 1354,
      "Ġour": 1355,
      "64": 1356,
      "ĠEx": 1357,
      "99": 1358,
      "ool": 1359,
      "Ġ/": 1360,
      "`.": 1361,
      "yn": 1362,
      "000": 1363,
      "Ġrec": 1364,
      "====": 1365,
      "for": 1366,
      "ĠĠĠĠĠĠĠĠĠ": 1367,
      "clud": 1368,
      "ark": 1369,
      "stem": 1370,
      "Ġcons": 1371,
      "ces": 1372,
      "rame": 1373,
      "List": 1374,
      "Ġad": 1375,
      "aph": 1376,
      "Ġarray": 1377,
      "Ġinter": 1378,
      "ures": 1379,
      "pen": 1380,
      "En": 1381,
      "Ġend": 1382,
      "ider": 1383,
      "Ġhand": 1384,
      "Ġrun": 1385,
      "tain": 1386,
      "ond": 1387,
      "version": 1388,
      "qual": 1389,
      "Ġfield": 1390,
      "rit": 1391,
      "aset": 1392,
      "ampl": 1393,
      "ick": 1394,
      "arning": 1395,
      "col": 1396,
      "ization": 1397,
      "Ġ>": 1398,
      "ger": 1399,
      "li": 1400,
      "db": 1401,
      "Ġ$": 1402,
      "wargs": 1403,
      "Ġtrans": 1404,
      "Ġmat": 1405,
      "Ġperform": 1406,
      "ware": 1407,
      "Ġmax": 1408,
      "Ġcurrent": 1409,
      "ape": 1410,
      "Ġconfig": 1411,
      "Ġdec": 1412,
      "Ġtext": 1413,
      "tem": 1414,
      "25": 1415,
      "Ġ**": 1416,
      "public": 1417,
      "Ġsim": 1418,
      "\"\"\"": 1419,
      "oint": 1420,
      "Ġstat": 1421,
      "size": 1422,
      "Ġ&": 1423,
      "Ġspecif": 1424,
      "Ġdefault": 1425,
      "etwork": 1426,
      "ire": 1427,
      "].": 1428,
      "Ġimage": 1429,
      "Ġmay": 1430,
      "Ġdifferent": 1431,
      "back": 1432,
      "alc": 1433,
      "</": 1434,
      "34": 1435,
      "ĠX": 1436,
      "rg": 1437,
      "(),": 1438,
      "ulti": 1439,
      "Ġrepresent": 1440,
      "Ġbeen": 1441,
      "Ġlen": 1442,
      "ache": 1443,
      "ete": 1444,
      "lean": 1445,
      "Ġimplement": 1446,
      "of": 1447,
      "ote": 1448,
      "valid": 1449,
      ">>>": 1450,
      "Ġstate": 1451,
      "Ġprocess": 1452,
      "Ġnum": 1453,
      "Ġreturns": 1454,
      "els": 1455,
      "Ġthan": 1456,
      "Ġthey": 1457,
      "AR": 1458,
      "Ġhim": 1459,
      "use": 1460,
      "Ġvalid": 1461,
      "Ġhad": 1462,
      "dict": 1463,
      "Ġcomputer": 1464,
      "Ġde": 1465,
      "action": 1466,
      "Ġinstance": 1467,
      "Ġoption": 1468,
      "config": 1469,
      "formation": 1470,
      "Ġnp": 1471,
      "Ġstart": 1472,
      "user": 1473,
      "`,": 1474,
      "ĠFalse": 1475,
      "ve": 1476,
      "itial": 1477,
      "ames": 1478,
      "respon": 1479,
      "Ġgo": 1480,
      "=\"": 1481,
      "Ġloc": 1482,
      "efore": 1483,
      "que": 1484,
      "old": 1485,
      "60": 1486,
      "Ġdiction": 1487,
      "33": 1488,
      "://": 1489,
      "ier": 1490,
      "Ġresults": 1491,
      "een": 1492,
      "ĉĉĉ": 1493,
      "uff": 1494,
      "Ġtheir": 1495,
      "ph": 1496,
      "plit": 1497,
      "Ġlo": 1498,
      "Ch": 1499,
      "EN": 1500,
      "by": 1501,
      "aid": 1502,
      "Ġneed": 1503,
      "Ġrespon": 1504,
      "eff": 1505,
      "ĠFor": 1506,
      "ense": 1507,
      "tent": 1508,
      "Ġcreate": 1509,
      "Ġthem": 1510,
      "info": 1511,
      "oun": 1512,
      "Ġ>>>": 1513,
      "new": 1514,
      "ices": 1515,
      "util": 1516,
      "ors": 1517,
      "Ġits": 1518,
      "bo": 1519,
      "Ġindex": 1520,
      "ca": 1521,
      "tribute": 1522,
      "0000": 1523,
      "50": 1524,
      "Ġexample": 1525,
      "ĠCon": 1526,
      "df": 1527,
      "oth": 1528,
      "comm": 1529,
      "Ġmin": 1530,
      "Com": 1531,
      "index": 1532,
      "oid": 1533,
      "Ġz": 1534,
      "Ġfollowing": 1535,
      "Ġli": 1536,
      "''": 1537,
      "Ġenc": 1538,
      "etween": 1539,
      "Ġ.": 1540,
      "alcul": 1541,
      "24": 1542,
      "Set": 1543,
      "line": 1544,
      "Tr": 1545,
      "vert": 1546,
      "Ġmodels": 1547,
      "Ġ__": 1548,
      "ĠIt": 1549,
      "unc": 1550,
      "iev": 1551,
      "ĠReturns": 1552,
      "now": 1553,
      "ession": 1554,
      "ases": 1555,
      "ID": 1556,
      "dir": 1557,
      "SE": 1558,
      "ines": 1559,
      "Ġos": 1560,
      "sub": 1561,
      "Ġrequ": 1562,
      "print": 1563,
      "instance": 1564,
      "akes": 1565,
      "Ġchar": 1566,
      "item": 1567,
      "ash": 1568,
      "IT": 1569,
      "tract": 1570,
      "27": 1571,
      "OR": 1572,
      "Ġnode": 1573,
      "Ġword": 1574,
      "30": 1575,
      "Ġbetween": 1576,
      "pre": 1577,
      "max": 1578,
      "nection": 1579,
      "imit": 1580,
      "Ġmy": 1581,
      "da": 1582,
      "Ġfeat": 1583,
      "Ġdataset": 1584,
      "Ġwhile": 1585,
      "67": 1586,
      "ics": 1587,
      "():": 1588,
      "Ġitem": 1589,
      "Ġread": 1590,
      "ensor": 1591,
      "Ġdirect": 1592,
      "Ġvari": 1593,
      "loc": 1594,
      "Ġdictionary": 1595,
      "uration": 1596,
      "assert": 1597,
      "Ġsame": 1598,
      "Data": 1599,
      "80": 1600,
      "ale": 1601,
      "37": 1602,
      "Ġ{}": 1603,
      "http": 1604,
      "...": 1605,
      "array": 1606,
      "reg": 1607,
      "Ġmet": 1608,
      "air": 1609,
      "Ġrel": 1610,
      "Ġspecified": 1611,
      "fter": 1612,
      "Ġresponse": 1613,
      "35": 1614,
      "AN": 1615,
      ":`": 1616,
      "over": 1617,
      "length": 1618,
      "Value": 1619,
      "Ġcase": 1620,
      "Ġiter": 1621,
      "be": 1622,
      "Ġprovid": 1623,
      "Ġmust": 1624,
      "num": 1625,
      "Ġformat": 1626,
      "opy": 1627,
      "Ġdel": 1628,
      "Ġexcept": 1629,
      "AC": 1630,
      "Ġfind": 1631,
      "cre": 1632,
      "gram": 1633,
      "olution": 1634,
      "False": 1635,
      "Ġdoes": 1636,
      "Ġoper": 1637,
      "Ġfinal": 1638,
      "Ġmessage": 1639,
      "LE": 1640,
      "ename": 1641,
      "[\"": 1642,
      "87": 1643,
      "stat": 1644,
      "Ġlabel": 1645,
      "vel": 1646,
      "Ġtraining": 1647,
      "Ġ+=": 1648,
      "'t": 1649,
      "94": 1650,
      "\");": 1651,
      "Ġthese": 1652,
      "95": 1653,
      "Ġact": 1654,
      "Ġappro": 1655,
      "Ġunder": 1656,
      "ayer": 1657,
      "Ġsaid": 1658,
      "ful": 1659,
      "Ġ[]": 1660,
      "ments": 1661,
      "Ġher": 1662,
      "File": 1663,
      "Ġinformation": 1664,
      "Ġelif": 1665,
      "########": 1666,
      "Ġinclud": 1667,
      "Ġ6": 1668,
      "Ġmethods": 1669,
      "ser": 1670,
      "rix": 1671,
      "Ġam": 1672,
      "ĠSt": 1673,
      "ler": 1674,
      "Class": 1675,
      "84": 1676,
      "Ġinstall": 1677,
      "ĠQ": 1678,
      "Ġ10": 1679,
      "eger": 1680,
      "Ġsuch": 1681,
      "97": 1682,
      "request": 1683,
      "ins": 1684,
      "Ġtem": 1685,
      "ular": 1686,
      "try": 1687,
      "perty": 1688,
      "istrib": 1689,
      "Ġsize": 1690,
      "pty": 1691,
      "ann": 1692,
      "odes": 1693,
      "Ġback": 1694,
      "ists": 1695,
      "Ġbased": 1696,
      "uments": 1697,
      "ki": 1698,
      "Ġparameters": 1699,
      "amples": 1700,
      "with": 1701,
      "arsh": 1702,
      "Ġsign": 1703,
      "Ġsome": 1704,
      "init": 1705,
      "ttp": 1706,
      "ays": 1707,
      "90": 1708,
      "Request": 1709,
      "utes": 1710,
      "Ġsup": 1711,
      "field": 1712,
      "Ġelement": 1713,
      "arn": 1714,
      "Ġremov": 1715,
      "Ġpred": 1716,
      "arent": 1717,
      "Ġwho": 1718,
      "Field": 1719,
      "85": 1720,
      "link": 1721,
      "Ġcre": 1722,
      "65": 1723,
      "Ġdict": 1724,
      "osit": 1725,
      "arser": 1726,
      "Ġgroup": 1727,
      "You": 1728,
      "kwargs": 1729,
      "Ġexec": 1730,
      "lp": 1731,
      "Ġorder": 1732,
      "omain": 1733,
      "rough": 1734,
      "Ġmodule": 1735,
      "Ġcommand": 1736,
      "Ġmulti": 1737,
      "ra": 1738,
      "ding": 1739,
      "til": 1740,
      "Ġnetwork": 1741,
      "ĠâĢľ": 1742,
      "Sh": 1743,
      "lib": 1744,
      "ebug": 1745,
      "quence": 1746,
      "Ġwere": 1747,
      "Ġshe": 1748,
      "angu": 1749,
      "Key": 1750,
      "count": 1751,
      "Ġlike": 1752,
      "erm": 1753,
      "uple": 1754,
      "Ġallow": 1755,
      "object": 1756,
      "An": 1757,
      ".âĢĿ": 1758,
      "oolean": 1759,
      "ĠĠĠĠĠĠĠĠĠĠĠĠĠĠĠĠĠĠĠĠĠĠĠĠ": 1760,
      "Ġconsider": 1761,
      "'.": 1762,
      "44": 1763,
      "Ġsm": 1764,
      "lob": 1765,
      "join": 1766,
      "Ġcolumn": 1767,
      "ements": 1768,
      "22": 1769,
      "Ġappl": 1770,
      "start": 1771,
      "::": 1772,
      "Ġac": 1773,
      "Ġlong": 1774,
      "ME": 1775,
      "Ġgu": 1776,
      "Ġwould": 1777,
      "ccess": 1778,
      "Ġcharact": 1779,
      "\"]": 1780,
      "met": 1781,
      "ager": 1782,
      "Ġparameter": 1783,
      "urs": 1784,
      "gor": 1785,
      "Ġpap": 1786,
      "ised": 1787,
      "tes": 1788,
      "umber": 1789,
      "\".": 1790,
      "ency": 1791,
      "());": 1792,
      "rol": 1793,
      "Ġtakes": 1794,
      "Ġopt": 1795,
      "ference": 1796,
      "ingle": 1797,
      "Ġeff": 1798,
      "api": 1799,
      "Ġpoint": 1800,
      "Gr": 1801,
      "ĠPro": 1802,
      "fix": 1803,
      "group": 1804,
      "arshall": 1805,
      "gorith": 1806,
      "Ġshow": 1807,
      "bed": 1808,
      "vent": 1809,
      "Ġco": 1810,
      "map": 1811,
      "Ġthrough": 1812,
      "Ġcontext": 1813,
      "SA": 1814,
      "Ġkeys": 1815,
      "66": 1816,
      "At": 1817,
      "Ġcould": 1818,
      "Ġlength": 1819,
      "ron": 1820,
      "raw": 1821,
      "Ġthrow": 1822,
      "Ġassert": 1823,
      "Ġopen": 1824,
      "write": 1825,
      "([": 1826,
      "su": 1827,
      "bl": 1828,
      "Object": 1829,
      "Ġinitial": 1830,
      "model": 1831,
      "label": 1832,
      "Ġcalcul": 1833,
      "tings": 1834,
      "obj": 1835,
      "apt": 1836,
      "dat": 1837,
      "Ġquery": 1838,
      "ository": 1839,
      "Ġ7": 1840,
      "plate": 1841,
      "ables": 1842,
      "Im": 1843,
      "node": 1844,
      "ody": 1845,
      "struct": 1846,
      "requ": 1847,
      "Ġatt": 1848,
      "attr": 1849,
      "Ġbefore": 1850,
      "ION": 1851,
      "here": 1852,
      "ĠĠĠĠĠĠĠĠĠĠĠĠĠĠĠĠĠĠĠĠĠĠĠĠĠĠĠ": 1853,
      "rem": 1854,
      "Ġdist": 1855,
      "create": 1856,
      "input": 1857,
      "ined": 1858,
      "serv": 1859,
      "hat": 1860,
      "lection": 1861,
      "ps": 1862,
      "âĪ": 1863,
      "de": 1864,
      "Ġoff": 1865,
      "ential": 1866,
      "place": 1867,
      "Ġ->": 1868,
      "55": 1869,
      "oding": 1870,
      "Ġsecond": 1871,
      "40": 1872,
      "Ġafter": 1873,
      "uffer": 1874,
      "Ġfloat": 1875,
      "process": 1876,
      "ML": 1877,
      "Ġexist": 1878,
      "work": 1879,
      "point": 1880,
      "sl": 1881,
      "Ġav": 1882,
      "ored": 1883,
      "Config": 1884,
      "ities": 1885,
      "Ġ8": 1886,
      "ively": 1887,
      "rec": 1888,
      "Ġknow": 1889,
      "Mod": 1890,
      "Ġlearning": 1891,
      "split": 1892,
      "run": 1893,
      "ank": 1894,
      "dition": 1895,
      ".__": 1896,
      "me": 1897,
      "28": 1898,
      "erial": 1899,
      "Get": 1900,
      "train": 1901,
      "ches": 1902,
      "ĉĉĉĉ": 1903,
      "sy": 1904,
      "39": 1905,
      "Ġboth": 1906,
      "state": 1907,
      "arts": 1908,
      "Ġisinstance": 1909,
      "led": 1910,
      "ok": 1911,
      "Ġvoid": 1912,
      "Ġstep": 1913,
      "ension": 1914,
      "Ġprovided": 1915,
      "Ġext": 1916,
      "Un": 1917,
      "irect": 1918,
      "default": 1919,
      "len": 1920,
      "Ġpaper": 1921,
      "Ġfiles": 1922,
      "ĠĠĠĠĊ": 1923,
      "ower": 1924,
      "----------------": 1925,
      "wise": 1926,
      "itle": 1927,
      "Path": 1928,
      "org": 1929,
      "result": 1930,
      "rc": 1931,
      "Ġtable": 1932,
      "Ġmake": 1933,
      "iter": 1934,
      "ead": 1935,
      "anguage": 1936,
      "ango": 1937,
      "Ġdistrib": 1938,
      "Ġsee": 1939,
      "mp": 1940,
      "ĠZ": 1941,
      "Ġsort": 1942,
      "ĠList": 1943,
      "ross": 1944,
      "imum": 1945,
      "ince": 1946,
      "Ġdoc": 1947,
      "38": 1948,
      "ternal": 1949,
      "ences": 1950,
      "ced": 1951,
      "77": 1952,
      "UT": 1953,
      "face": 1954,
      "ypes": 1955,
      "Col": 1956,
      "idth": 1957,
      "ision": 1958,
      "Ġbr": 1959,
      "rray": 1960,
      "Ġsent": 1961,
      "md": 1962,
      "Ġ'''": 1963,
      "ormal": 1964,
      "IC": 1965,
      "flow": 1966,
      "Ġwithout": 1967,
      "Ġsystem": 1968,
      "duct": 1969,
      "Ġdown": 1970,
      "cf": 1971,
      "Ġnon": 1972,
      "__(": 1973,
      "miss": 1974,
      "por": 1975,
      "ature": 1976,
      "ponent": 1977,
      "reak": 1978,
      "uilder": 1979,
      "ging": 1980,
      "reat": 1981,
      "pp": 1982,
      "Ġtrue": 1983,
      "versions": 1984,
      "36": 1985,
      "Ġlast": 1986,
      "ings": 1987,
      "var": 1988,
      "del": 1989,
      "((": 1990,
      "ric": 1991,
      "vir": 1992,
      "Ġlarg": 1993,
      "Ġfull": 1994,
      "ĠTo": 1995,
      "ten": 1996,
      "view": 1997,
      "ait": 1998,
      "exp": 1999,
      "man": 2000,
      "Ġsel": 2001,
      "29": 2002,
      "play": 2003,
      "Ġtim": 2004,
      "option": 2005,
      "ĠCom": 2006,
      "ific": 2007,
      "oss": 2008,
      "oud": 2009,
      "ie": 2010,
      "Ġabout": 2011,
      "mat": 2012,
      "client": 2013,
      "ponse": 2014,
      "fr": 2015,
      "ister": 2016,
      "ync": 2017,
      "lose": 2018,
      "parse": 2019,
      "Ġcount": 2020,
      "ne": 2021,
      "Ġperformance": 2022,
      "Ġmap": 2023,
      "hor": 2024,
      "arameters": 2025,
      "jango": 2026,
      "adata": 2027,
      "icense": 2028,
      "Ġmem": 2029,
      "update": 2030,
      "Ġ{@": 2031,
      "cd": 2032,
      "ose": 2033,
      "Ġevent": 2034,
      "gorithm": 2035,
      "alu": 2036,
      "Ġwhat": 2037,
      "Ġhead": 2038,
      ",,": 2039,
      "Ġproble": 2040,
      "ĠAD": 2041,
      "doc": 2042,
      "ern": 2043,
      "26": 2044,
      "abled": 2045,
      "sum": 2046,
      "ING": 2047,
      "DED": 2048,
      "Ġhelp": 2049,
      "Ġaction": 2050,
      "bin": 2051,
      "gle": 2052,
      "Ġsingle": 2053,
      "Ġcontent": 2054,
      "pack": 2055,
      "Ġorig": 2056,
      "comp": 2057,
      "RO": 2058,
      "Ġcalled": 2059,
      "},": 2060,
      ".\"": 2061,
      "][": 2062,
      "Ġargs": 2063,
      "45": 2064,
      "ifier": 2065,
      "ustom": 2066,
      "Ġrepository": 2067,
      "ĠCVSS": 2068,
      "ĠAn": 2069,
      "Ġreturned": 2070,
      "alt": 2071,
      "47": 2072,
      "========": 2073,
      "cb": 2074,
      "igure": 2075,
      "check": 2076,
      "ber": 2077,
      "ification": 2078,
      "ED": 2079,
      "ithub": 2080,
      "tributes": 2081,
      "etime": 2082,
      "TT": 2083,
      "indow": 2084,
      "call": 2085,
      "Ind": 2086,
      "core": 2087,
      "ons": 2088,
      "etter": 2089,
      "other": 2090,
      "Ġcorrespon": 2091,
      "ĠTr": 2092,
      "Ġblock": 2093,
      "abase": 2094,
      "values": 2095,
      "Ġarguments": 2096,
      "Ġ--------": 2097,
      "ftware": 2098,
      "aces": 2099,
      "Ġ&&": 2100,
      "Ġmatch": 2101,
      "iction": 2102,
      "ref": 2103,
      "Ġ{'": 2104,
      "ĠĠĠĠĠĠĠĠĠĠ": 2105,
      "oints": 2106,
      "Client": 2107,
      "rap": 2108,
      "Ġurl": 2109,
      "perties": 2110,
      "imal": 2111,
      "Ġprogram": 2112,
      "rary": 2113,
      "Ġcompl": 2114,
      "Man": 2115,
      "inally": 2116,
      "inter": 2117,
      "les": 2118,
      "open": 2119,
      "23": 2120,
      "Map": 2121,
      "Ġserver": 2122,
      "iver": 2123,
      "ieve": 2124,
      "Ġproject": 2125,
      "By": 2126,
      "88": 2127,
      "und": 2128,
      "Ġlat": 2129,
      "Ġstruct": 2130,
      "ĠArg": 2131,
      "Ġ('": 2132,
      "rel": 2133,
      "ted": 2134,
      ",âĢĿ": 2135,
      "Ġfact": 2136,
      "tal": 2137,
      "err": 2138,
      "dev": 2139,
      "Ġfilter": 2140,
      "ness": 2141,
      "Time": 2142,
      "ĠValue": 2143,
      "Ġsuper": 2144,
      "ĠCh": 2145,
      "Ġwant": 2146,
      "ta": 2147,
      "viron": 2148,
      "oci": 2149,
      "Ġparam": 2150,
      "ao": 2151,
      "ear": 2152,
      "Add": 2153,
      "aa": 2154,
      "For": 2155,
      "SON": 2156,
      "Ġnext": 2157,
      "method": 2158,
      "dec": 2159,
      "ately": 2160,
      "Ġpublic": 2161,
      "ĠHe": 2162,
      "output": 2163,
      "uster": 2164,
      "57": 2165,
      "ĠADDED": 2166,
      "));": 2167,
      "lement": 2168,
      "right": 2169,
      "ural": 2170,
      "Ġargument": 2171,
      "sw": 2172,
      "Ġresource": 2173,
      "[]": 2174,
      "Response": 2175,
      "bf": 2176,
      "Ġhttp": 2177,
      "Node": 2178,
      "Ġstatic": 2179,
      "project": 2180,
      "Ġobjects": 2181,
      "ither": 2182,
      "perim": 2183,
      "co": 2184,
      "ique": 2185,
      "posed": 2186,
      "debug": 2187,
      "****": 2188,
      "Ġelements": 2189,
      "96": 2190,
      "Ġcontains": 2191,
      "âĢĶ": 2192,
      ".,": 2193,
      "ailable": 2194,
      "az": 2195,
      "Ġ,": 2196,
      "ailed": 2197,
      "Ġvariable": 2198,
      "andler": 2199,
      "Ġaddress": 2200,
      "names": 2201,
      "Ġgraph": 2202,
      "Ġbound": 2203,
      "ĠHow": 2204,
      "ww": 2205,
      "ĠPy": 2206,
      "ability": 2207,
      "ets": 2208,
      "()`": 2209,
      "annel": 2210,
      "Ġattribute": 2211,
      "dis": 2212,
      "Ġ202": 2213,
      "Ġbase": 2214,
      "Ġlocal": 2215,
      "Ġposition": 2216,
      "ĠRes": 2217,
      "Ġevalu": 2218,
      "Ġcontaining": 2219,
      "irst": 2220,
      "Ġrow": 2221,
      "Ġwrite": 2222,
      ".\"\"\"": 2223,
      "ouble": 2224,
      "this": 2225,
      "Ġservice": 2226,
      "ĠAll": 2227,
      "Ġentity": 2228,
      "plic": 2229,
      "Ġextract": 2230,
      "acy": 2231,
      "ru": 2232,
      "Ġexception": 2233,
      "amp": 2234,
      "86": 2235,
      "Context": 2236,
      "amb": 2237,
      "resh": 2238,
      "46": 2239,
      "uring": 2240,
      "Ġeven": 2241,
      "ilar": 2242,
      "pace": 2243,
      "ox": 2244,
      "izer": 2245,
      "Ġaw": 2246,
      "ready": 2247,
      "Ġattack": 2248,
      "message": 2249,
      "Ġlimit": 2250,
      "roll": 2251,
      "Ġaccess": 2252,
      "Ġway": 2253,
      "'],": 2254,
      "ipp": 2255,
      "Ġboolean": 2256,
      "Ġpy": 2257,
      "Ġret": 2258,
      "Ġdirectory": 2259,
      "ĠID": 2260,
      "trans": 2261,
      "Show": 2262,
      "status": 2263,
      "los": 2264,
      "Ġrunning": 2265,
      "Ġpoints": 2266,
      "ume": 2267,
      "yle": 2268,
      "Ġupdate": 2269,
      "ish": 2270,
      "Ġpair": 2271,
      "Ġhigh": 2272,
      "pass": 2273,
      "Ġph": 2274,
      "Ġmain": 2275,
      "als": 2276,
      "Not": 2277,
      "cause": 2278,
      "Ġax": 2279,
      "itive": 2280,
      "Ġest": 2281,
      "utput": 2282,
      "HSA": 2283,
      "Ġte": 2284,
      "hether": 2285,
      "ride": 2286,
      "pol": 2287,
      "token": 2288,
      "Ġlib": 2289,
      "ances": 2290,
      "ql": 2291,
      "Ġright": 2292,
      "ĠUn": 2293,
      "Index": 2294,
      "riter": 2295,
      "Ġloss": 2296,
      "search": 2297,
      "Ġach": 2298,
      "Ġsum": 2299,
      "throws": 2300,
      "Ġframe": 2301,
      "ights": 2302,
      "mb": 2303,
      "Ġnow": 2304,
      "Util": 2305,
      "opt": 2306,
      "Ġtuple": 2307,
      "bb": 2308,
      "hema": 2309,
      "Ġprev": 2310,
      "89": 2311,
      "Ġimpro": 2312,
      "Ġvis": 2313,
      "Ġdomain": 2314,
      "Ġsearch": 2315,
      "Ġempty": 2316,
      "ĠAl": 2317,
      "LO": 2318,
      "my": 2319,
      "table": 2320,
      "find": 2321,
      "Ġcontrol": 2322,
      "cs": 2323,
      "eed": 2324,
      "Ġfalse": 2325,
      "ĠGHSA": 2326,
      "Ġproblem": 2327,
      "oder": 2328,
      "Ġmatrix": 2329,
      "ants": 2330,
      "icy": 2331,
      "query": 2332,
      "ily": 2333,
      "Ġbecause": 2334,
      "UI": 2335,
      "70": 2336,
      "Ġload": 2337,
      "Ġhere": 2338,
      "ĠValueError": 2339,
      "ood": 2340,
      "we": 2341,
      "ĠParameters": 2342,
      "RI": 2343,
      "Ġclient": 2344,
      "ĠYou": 2345,
      "Def": 2346,
      "Ġthree": 2347,
      "utils": 2348,
      "Message": 2349,
      "medi": 2350,
      "params": 2351,
      "Ġwell": 2352,
      "ero": 2353,
      "ified": 2354,
      "Ġfeatures": 2355,
      "ik": 2356,
      "Ġimplementation": 2357,
      "shape": 2358,
      "Ġconvert": 2359,
      "func": 2360,
      "ET": 2361,
      "Ġsequence": 2362,
      "Ġconsidered": 2363,
      "image": 2364,
      "ources": 2365,
      "Arg": 2366,
      "items": 2367,
      "ĠCl": 2368,
      "Ġsolution": 2369,
      "Ġfeature": 2370,
      "Ġcatch": 2371,
      "Ġold": 2372,
      "ĠĠĠĠĠĠĠĠĠĠĠĠĠ": 2373,
      "tx": 2374,
      "Stream": 2375,
      "Ġinteger": 2376,
      "ĠLicense": 2377,
      "Service": 2378,
      "dk": 2379,
      "Ġbreak": 2380,
      "ĠĠĠĠĠĠĠĠĊ": 2381,
      "Ġresulting": 2382,
      "plot": 2383,
      "Ġou": 2384,
      "ĠIm": 2385,
      "ĠRe": 2386,
      "CO": 2387,
      "Ġtotal": 2388,
      "ported": 2389,
      "Here": 2390,
      "aster": 2391,
      "nect": 2392,
      "idd": 2393,
      "Info": 2394,
      "everity": 2395,
      "html": 2396,
      "{}": 2397,
      "Ġalgorithm": 2398,
      "Ġimages": 2399,
      "Ġcondition": 2400,
      "sg": 2401,
      "Ġpresent": 2402,
      "apping": 2403,
      "Ġdisc": 2404,
      "Ġtasks": 2405,
      "Ġconnection": 2406,
      "LI": 2407,
      "Ġwords": 2408,
      "ES": 2409,
      "Up": 2410,
      "75": 2411,
      "OT": 2412,
      "State": 2413,
      "Ġca": 2414,
      "Ġjson": 2415,
      "ty": 2416,
      "Ġstored": 2417,
      "'),": 2418,
      "ba": 2419,
      "response": 2420,
      "Test": 2421,
      "Ġ['": 2422,
      "host": 2423,
      "pose": 2424,
      "hent": 2425,
      "itional": 2426,
      "lect": 2427,
      "loat": 2428,
      "cent": 2429,
      "Ġbl": 2430,
      "lease": 2431,
      "ĠArgs": 2432,
      "Ġ9": 2433,
      "gener": 2434,
      "server": 2435,
      "Ġoptim": 2436,
      "lear": 2437,
      "Ġmost": 2438,
      "Form": 2439,
      "order": 2440,
      "ystem": 2441,
      "Ġrequired": 2442,
      "Ġview": 2443,
      "Ġlanguage": 2444,
      "Ġ--": 2445,
      "Ġalready": 2446,
      "eline": 2447,
      "off": 2448,
      "ises": 2449,
      "Ġsl": 2450,
      "AS": 2451,
      "If": 2452,
      "###": 2453,
      "Log": 2454,
      "context": 2455,
      "Ġspace": 2456,
      "Qu": 2457,
      "Ġins": 2458,
      "eries": 2459,
      "filter": 2460,
      "Ġreal": 2461,
      "Ġeffect": 2462,
      "Int": 2463,
      "CT": 2464,
      "Ġinv": 2465,
      "Ġchild": 2466,
      "ends": 2467,
      "current": 2468,
      "unk": 2469,
      "Ġoriginal": 2470,
      "Ġroot": 2471,
      "Element": 2472,
      "EM": 2473,
      "Ġsk": 2474,
      "Ġtop": 2475,
      "Ġoptional": 2476,
      "Ġleft": 2477,
      "Ġdim": 2478,
      "stri": 2479,
      "arr": 2480,
      "ugin": 2481,
      "Ġbool": 2482,
      "ully": 2483,
      "Ġloop": 2484,
      "https": 2485,
      "Ġcorresponding": 2486,
      "github": 2487,
      "Ġref": 2488,
      "Any": 2489,
      "Ġwithin": 2490,
      "Ġthrows": 2491,
      "Ġdistribution": 2492,
      "oogle": 2493,
      "andard": 2494,
      "Ġindic": 2495,
      "ather": 2496,
      "block": 2497,
      "56": 2498,
      "Ġuses": 2499,
      "ints": 2500,
      "Ġ...": 2501,
      "esc": 2502,
      "ordin": 2503,
      "ared": 2504,
      "ĠDef": 2505,
      "Ġ----------": 2506,
      "Group": 2507,
      "equal": 2508,
      "As": 2509,
      "final": 2510,
      "Ġsn": 2511,
      "Al": 2512,
      "level": 2513,
      "Ġobtain": 2514,
      "nown": 2515,
      "uck": 2516,
      "head": 2517,
      "ren": 2518,
      "ĠAs": 2519,
      "Ġparent": 2520,
      "Ġcharacter": 2521,
      "pi": 2522,
      "Ġ<=": 2523,
      "cont": 2524,
      "br": 2525,
      "ope": 2526,
      "emon": 2527,
      "hs": 2528,
      "Ġbas": 2529,
      "uture": 2530,
      "21": 2531,
      "ds": 2532,
      "Aut": 2533,
      "Ġ..": 2534,
      "Ġrecord": 2535,
      "He": 2536,
      "Val": 2537,
      "no": 2538,
      "Over": 2539,
      "np": 2540,
      "Ġkwargs": 2541,
      "Ġvector": 2542,
      "Ġsoftware": 2543,
      "Model": 2544,
      "Ġlearn": 2545,
      "Ġremoved": 2546,
      "keys": 2547,
      "mark": 2548,
      "98": 2549,
      "lobal": 2550,
      "Equal": 2551,
      "Ġfields": 2552,
      "Ġdiv": 2553,
      "Ġlogger": 2554,
      "Ġhost": 2555,
      "ols": 2556,
      "ĠJSON": 2557,
      "AV": 2558,
      "CH": 2559,
      "Ġhandle": 2560,
      "Ġsecre": 2561,
      "ĠObject": 2562,
      "Ġstrings": 2563,
      "Ġsmall": 2564,
      "Ġâ": 2565,
      "Ġvia": 2566,
      "bit": 2567,
      "Ġdate": 2568,
      "UL": 2569,
      "strain": 2570,
      "Manager": 2571,
      "wh": 2572,
      "Ġlayer": 2573,
      "Ġrot": 2574,
      "Ġmean": 2575,
      "inition": 2576,
      "01": 2577,
      "Ġanaly": 2578,
      "Array": 2579,
      "'])": 2580,
      "tra": 2581,
      "Return": 2582,
      "ns": 2583,
      "omet": 2584,
      "PE": 2585,
      "++": 2586,
      "ior": 2587,
      "ari": 2588,
      "cat": 2589,
      "ched": 2590,
      "paramet": 2591,
      "Ġjust": 2592,
      "We": 2593,
      "uch": 2594,
      "ives": 2595,
      "inary": 2596,
      "Ġeither": 2597,
      "Ġocc": 2598,
      "ai": 2599,
      "Input": 2600,
      "48": 2601,
      "Ġpar": 2602,
      "graph": 2603,
      "target": 2604,
      "[:": 2605,
      "Ġconfiguration": 2606,
      "Ġmon": 2607,
      "ality": 2608,
      "Stat": 2609,
      "ories": 2610,
      "next": 2611,
      "ters": 2612,
      "command": 2613,
      "Builder": 2614,
      "Table": 2615,
      "Ġbeing": 2616,
      "Ġbuild": 2617,
      "Ġ----": 2618,
      "filename": 2619,
      "ĠSh": 2620,
      "models": 2621,
      "Ġoperation": 2622,
      "icient": 2623,
      "Ġq": 2624,
      "ush": 2625,
      "rt": 2626,
      "Ġfully": 2627,
      "?âĢĿ": 2628,
      "pth": 2629,
      "Ġter": 2630,
      "ene": 2631,
      "number": 2632,
      "orld": 2633,
      "ci": 2634,
      "tim": 2635,
      "olve": 2636,
      "based": 2637,
      "Ġden": 2638,
      "Ġcorrect": 2639,
      "Ġretr": 2640,
      "Ġwhether": 2641,
      "Ġtake": 2642,
      "Ġexperim": 2643,
      "Ġassoci": 2644,
      "49": 2645,
      "Ġmultiple": 2646,
      "rior": 2647,
      "Ġobserv": 2648,
      "Ġavailable": 2649,
      "Ġcopy": 2650,
      "ids": 2651,
      "ertain": 2652,
      "Ġtri": 2653,
      "Ġaccur": 2654,
      "fa": 2655,
      "Ġstatus": 2656,
      "Ġpassed": 2657,
      "################": 2658,
      "izes": 2659,
      "Ġprovide": 2660,
      "Ġrespect": 2661,
      "âĪĴ": 2662,
      "Ġouts": 2663,
      "Ġupd": 2664,
      "vironment": 2665,
      "Ġgreat": 2666,
      "ĠĠĠĠĠĠĠĠĠĠĠĠ": 2667,
      "mit": 2668,
      "ĠGener": 2669,
      "43": 2670,
      "root": 2671,
      "ĠData": 2672,
      "types": 2673,
      "Ġexisting": 2674,
      "ENT": 2675,
      "less": 2676,
      "down": 2677,
      "]:": 2678,
      "Ġnormal": 2679,
      "Ġcolor": 2680,
      "PR": 2681,
      "actory": 2682,
      "float": 2683,
      "Ġvery": 2684,
      "AB": 2685,
      "event": 2686,
      "FI": 2687,
      "Ġstud": 2688,
      "Ġobj": 2689,
      "Ġstream": 2690,
      "Ġshape": 2691,
      "Or": 2692,
      "Ġsession": 2693,
      "'):": 2694,
      "Ġprevious": 2695,
      "Ġlarge": 2696,
      "oice": 2697,
      "plex": 2698,
      "ĠTh": 2699,
      "Ġexpression": 2700,
      "source": 2701,
      "Ġentry": 2702,
      "Ġparse": 2703,
      "frame": 2704,
      "Ġlay": 2705,
      "Create": 2706,
      "Ġtypes": 2707,
      "Ġoutside": 2708,
      "par": 2709,
      "content": 2710,
      "Ġsuccess": 2711,
      "ĠAt": 2712,
      "urther": 2713,
      "Of": 2714,
      "uss": 2715,
      "Ġbetter": 2716,
      "oot": 2717,
      "TTP": 2718,
      "olv": 2719,
      "31": 2720,
      "essages": 2721,
      "Resource": 2722,
      "Ġlevel": 2723,
      "Ġcur": 2724,
      "Ġstill": 2725,
      "null": 2726,
      "Ġdid": 2727,
      "Ġsimilar": 2728,
      "Ġseg": 2729,
      "Ġestim": 2730,
      "Ġoptions": 2731,
      "With": 2732,
      "ounter": 2733,
      "position": 2734,
      "remove": 2735,
      "cor": 2736,
      "ĠOpen": 2737,
      "PO": 2738,
      "AD": 2739,
      "ĠException": 2740,
      "arant": 2741,
      "ux": 2742,
      "files": 2743,
      "leg": 2744,
      "Ġbeg": 2745,
      "env": 2746,
      "Ġparams": 2747,
      "ambda": 2748,
      "Ġsample": 2749,
      "box": 2750,
      "Ġequ": 2751,
      "Your": 2752,
      "AP": 2753,
      "ĠHowever": 2754,
      "fd": 2755,
      "Ġprob": 2756,
      "Ġdefined": 2757,
      "Returns": 2758,
      "exec": 2759,
      "ĠThen": 2760,
      "Ġiss": 2761,
      "Ġquest": 2762,
      "build": 2763,
      "Ġow": 2764,
      "task": 2765,
      "05": 2766,
      "Base": 2767,
      "Ġexpected": 2768,
      "match": 2769,
      "ocket": 2770,
      "Ġtag": 2771,
      "tle": 2772,
      "loy": 2773,
      "eta": 2774,
      "Marshall": 2775,
      "ĠHere": 2776,
      "fc": 2777,
      "CL": 2778,
      "Th": 2779,
      "mt": 2780,
      "alware": 2781,
      "Ġbeh": 2782,
      "verage": 2783,
      "Ali": 2784,
      "Ġattributes": 2785,
      "contain": 2786,
      "And": 2787,
      "Ġdatabase": 2788,
      "Py": 2789,
      "ategory": 2790,
      "main": 2791,
      "Ġpers": 2792,
      "Ġimmedi": 2793,
      "Ġproposed": 2794,
      "uted": 2795,
      "Ġport": 2796,
      "Ġinstalled": 2797,
      "Ġrepresentation": 2798,
      "69": 2799,
      "ured": 2800,
      "Ġguarant": 2801,
      "Ġwrit": 2802,
      "Frame": 2803,
      "Ġdescri": 2804,
      "ling": 2805,
      "Ġheader": 2806,
      "Text": 2807,
      "Override": 2808,
      "private": 2809,
      "module": 2810,
      "68": 2811,
      "function": 2812,
      "42": 2813,
      "AME": 2814,
      "mon": 2815,
      "Entry": 2816,
      "Ġop": 2817,
      "ending": 2818,
      "Ġpage": 2819,
      "idget": 2820,
      "sort": 2821,
      "AG": 2822,
      "plication": 2823,
      "Handler": 2824,
      "rypt": 2825,
      "Ġapproach": 2826,
      "Ġlink": 2827,
      "Ġconv": 2828,
      "Ġjob": 2829,
      "Ġnumpy": 2830,
      "Sub": 2831,
      "Ġadv": 2832,
      "Enabled": 2833,
      "ĠFile": 2834,
      "Ġsep": 2835,
      "net": 2836,
      "Ġsys": 2837,
      "Ġpredict": 2838,
      "Ġevery": 2839,
      ",\"": 2840,
      "CE": 2841,
      "Fil": 2842,
      "ged": 2843,
      "Ġpassword": 2844,
      "Rec": 2845,
      "column": 2846,
      "OD": 2847,
      "User": 2848,
      "bd": 2849,
      "auth": 2850,
      "Ġke": 2851,
      "msg": 2852,
      "igr": 2853,
      "Ġsamples": 2854,
      "ason": 2855,
      "mi": 2856,
      "direct": 2857,
      "Ġens": 2858,
      "orage": 2859,
      "Ġver": 2860,
      "NN": 2861,
      "Ġcharacters": 2862,
      "Ġdocument": 2863,
      "}{": 2864,
      "Ġincre": 2865,
      ")))": 2866,
      "title": 2867,
      "ĠĠĠĠĠĠĠĠĠĠĠĠĠĠĠĠĠĠĠĠĠĠĠĠĠĠĠĠĠĠĠ": 2868,
      "Item": 2869,
      "Ġimmediately": 2870,
      "ounts": 2871,
      "ended": 2872,
      "ived": 2873,
      "usion": 2874,
      "stack": 2875,
      "Ġrequire": 2876,
      "Ġdr": 2877,
      "bc": 2878,
      "plied": 2879,
      "fe": 2880,
      ")]": 2881,
      "Ġconf": 2882,
      "Ġfilename": 2883,
      "ways": 2884,
      "queue": 2885,
      "part": 2886,
      "attern": 2887,
      "itch": 2888,
      "itor": 2889,
      "Ġdon": 2890,
      "ton": 2891,
      "Event": 2892,
      "sel": 2893,
      "tention": 2894,
      "Ġcontinue": 2895,
      "Ġspec": 2896,
      "Ġprediction": 2897,
      "etch": 2898,
      "Ġtransform": 2899,
      "ae": 2900,
      "web": 2901,
      "rtype": 2902,
      "Loc": 2903,
      "anch": 2904,
      "fields": 2905,
      "Ġfunctions": 2906,
      "dim": 2907,
      "bre": 2908,
      "tag": 2909,
      "aries": 2910,
      "Ġduring": 2911,
      "rop": 2912,
      "Ġfr": 2913,
      "ĠIO": 2914,
      "verse": 2915,
      "assertEqual": 2916,
      "hand": 2917,
      "QL": 2918,
      "ecess": 2919,
      "Ġinclude": 2920,
      "Ġnodes": 2921,
      "Ġgenerated": 2922,
      "Ġcalculate": 2923,
      "Ġarch": 2924,
      "do": 2925,
      "case": 2926,
      "Ġbest": 2927,
      "Ġerrors": 2928,
      "Ġsorted": 2929,
      "Ġmode": 2930,
      "92": 2931,
      "})": 2932,
      "Ġsettings": 2933,
      "02": 2934,
      "Ġyield": 2935,
      "Ġ||": 2936,
      "Size": 2937,
      "Ġdest": 2938,
      "ached": 2939,
      "Ġdatasets": 2940,
      "Ġconstruct": 2941,
      "let": 2942,
      "Ġassociated": 2943,
      "Ġrece": 2944,
      "ender": 2945,
      "Ġprom": 2946,
      "ides": 2947,
      "Ġstore": 2948,
      "Ġremoving": 2949,
      "ĠGr": 2950,
      "Ġmany": 2951,
      "100": 2952,
      "Ġplot": 2953,
      "cy": 2954,
      "Ġcustom": 2955,
      "07": 2956,
      "Net": 2957,
      "Reg": 2958,
      "ynam": 2959,
      "Ġmaximum": 2960,
      "Ġproperty": 2961,
      "ulation": 2962,
      "session": 2963,
      "ination": 2964,
      "Argument": 2965,
      "width": 2966,
      "uid": 2967,
      "Ġbytes": 2968,
      "Ġapplication": 2969,
      "inst": 2970,
      "Ġmask": 2971,
      ")`": 2972,
      "TY": 2973,
      "ators": 2974,
      "Ġstructure": 2975,
      "Ġtree": 2976,
      "range": 2977,
      "ias": 2978,
      "Ġlabels": 2979,
      "sol": 2980,
      "Ġlogging": 2981,
      "Ġmsg": 2982,
      "IS": 2983,
      "iff": 2984,
      "Ġsw": 2985,
      "Aliases": 2986,
      "ĠĠĠĠĠĠĠĠĠĠĠĠĠĠ": 2987,
      "go": 2988,
      "ĠOn": 2989,
      "icode": 2990,
      "Ġcreated": 2991,
      "Ġcomprom": 2992,
      "ledge": 2993,
      "Ġlow": 2994,
      "ĠTable": 2995,
      "ially": 2996,
      "58": 2997,
      "Instance": 2998,
      "Ġmemory": 2999,
      "lat": 3000,
      "ui": 3001,
      "Sc": 3002,
      "close": 3003,
      "uction": 3004,
      "Ġsince": 3005,
      "Ġspe": 3006,
      "Ġshown": 3007,
      "Ġembed": 3008,
      "alk": 3009,
      "Ġ>=": 3010,
      "Method": 3011,
      "Ġpe": 3012,
      "Ġaccount": 3013,
      "swer": 3014,
      "Ġdistance": 3015,
      "Ġcannot": 3016,
      "umer": 3017,
      "Ġequal": 3018,
      "dc": 3019,
      "top": 3020,
      "words": 3021,
      "From": 3022,
      "last": 3023,
      "Ġrepresenting": 3024,
      "Ġgeneral": 3025,
      "estamp": 3026,
      "ges": 3027,
      "mem": 3028,
      "ison": 3029,
      "char": 3030,
      "93": 3031,
      "Marshaller": 3032,
      "uf": 3033,
      "Ref": 3034,
      "On": 3035,
      "iod": 3036,
      "ought": 3037,
      "options": 3038,
      "ĠSet": 3039,
      "aking": 3040,
      "CON": 3041,
      "Ġ]": 3042,
      "Se": 3043,
      "service": 3044,
      "Ġdiff": 3045,
      "Option": 3046,
      "Ġpars": 3047,
      "achine": 3048,
      "ĠSee": 3049,
      "Ġweb": 3050,
      "No": 3051,
      "Check": 3052,
      "Ġmark": 3053,
      "has": 3054,
      "pop": 3055,
      "Ġlead": 3056,
      "Ġlet": 3057,
      "Trans": 3058,
      "Lo": 3059,
      "ĠWhen": 3060,
      "resents": 3061,
      "ĠFigure": 3062,
      "ivity": 3063,
      "replace": 3064,
      "Ġdemon": 3065,
      "entry": 3066,
      "Result": 3067,
      "rics": 3068,
      "Ġannot": 3069,
      "04": 3070,
      "son": 3071,
      "bot": 3072,
      "Ġthose": 3073,
      "Ġexists": 3074,
      "Ġsepar": 3075,
      "ift": 3076,
      "store": 3077,
      "post": 3078,
      "Ġsection": 3079,
      "....": 3080,
      "Ġparser": 3081,
      "ponents": 3082,
      "Ġbody": 3083,
      "ĠSo": 3084,
      "Ġstandard": 3085,
      "delete": 3086,
      "left": 3087,
      "Ġtemplate": 3088,
      "Ġday": 3089,
      "Ġcompromised": 3090,
      "oute": 3091,
      "stant": 3092,
      "Ġ-------": 3093,
      "sec": 3094,
      "78": 3095,
      "Ġremain": 3096,
      "Ġpost": 3097,
      "Ġdatetime": 3098,
      "older": 3099,
      "Ġthread": 3100,
      "AM": 3101,
      "Ġerr": 3102,
      "cle": 3103,
      "Ġmade": 3104,
      "redential": 3105,
      "Ġsecrets": 3106,
      "Ġitems": 3107,
      "Ġabove": 3108,
      "54": 3109,
      "ris": 3110,
      "dr": 3111,
      "req": 3112,
      "Ġanother": 3113,
      "Ġadded": 3114,
      "shot": 3115,
      "ensions": 3116,
      "Ġguarantee": 3117,
      "ä¸": 3118,
      "Ġsur": 3119,
      "utf": 3120,
      "62": 3121,
      "idx": 3122,
      "IL": 3123,
      "ires": 3124,
      "Ġlower": 3125,
      "Ġgood": 3126,
      "aults": 3127,
      "frac": 3128,
      "59": 3129,
      "mission": 3130,
      "UN": 3131,
      "Ġdisplay": 3132,
      "like": 3133,
      "'))": 3134,
      "IO": 3135,
      "ĠBut": 3136,
      "ently": 3137,
      "Ġallows": 3138,
      "Ġcompar": 3139,
      "equals": 3140,
      "74": 3141,
      "Ġ100": 3142,
      "olog": 3143,
      "Ġcache": 3144,
      "63": 3145,
      "ole": 3146,
      "xml": 3147,
      "IM": 3148,
      "All": 3149,
      "Ġlines": 3150,
      "Ġreference": 3151,
      "Ġput": 3152,
      "fb": 3153,
      "ude": 3154,
      "legal": 3155,
      "Ġunique": 3156,
      "ĠType": 3157,
      "Severity": 3158,
      "Ġadditional": 3159,
      "copy": 3160,
      "Em": 3161,
      "View": 3162,
      "Ġfunc": 3163,
      "lower": 3164,
      "Ġmeas": 3165,
      "ideo": 3166,
      "DB": 3167,
      "Output": 3168,
      "Ġrequests": 3169,
      "Date": 3170,
      "aven": 3171,
      "Ġvariables": 3172,
      "pared": 3173,
      "Ġbro": 3174,
      "arameter": 3175,
      "Ġtokens": 3176,
      "aps": 3177,
      "Ġign": 3178,
      "Pl": 3179,
      "Ġscore": 3180,
      "Ġchange": 3181,
      "Ġinstead": 3182,
      "Ġarr": 3183,
      "Ġserv": 3184,
      "Ġproperties": 3185,
      "feat": 3186,
      "malware": 3187,
      "ĠNote": 3188,
      "adi": 3189,
      "Inter": 3190,
      "Ġcommon": 3191,
      "gress": 3192,
      "Ġaccuracy": 3193,
      "plac": 3194,
      "cache": 3195,
      "Ġfurther": 3196,
      "random": 3197,
      "aws": 3198,
      "Ġnecess": 3199,
      "Hel": 3200,
      "Ĥ¬": 3201,
      "ĠNot": 3202,
      "Ġlibrary": 3203,
      "Ġsteps": 3204,
      "UR": 3205,
      "Ġvalidation": 3206,
      "Ġachieve": 3207,
      "resource": 3208,
      "Ġotherwise": 3209,
      "Ġcoordin": 3210,
      "Ġask": 3211,
      "uri": 3212,
      "Exp": 3213,
      "issing": 3214,
      "Run": 3215,
      "afe": 3216,
      "Ġunit": 3217,
      "rection": 3218,
      "ĠLi": 3219,
      "tensor": 3220,
      "address": 3221,
      "ground": 3222,
      "Property": 3223,
      "used": 3224,
      "Ġbyte": 3225,
      "Ġreport": 3226,
      "Ġimprov": 3227,
      "eted": 3228,
      "true": 3229,
      "ĠĠĠĠĠĠĠĠĠĠĠĠĠĠĠĠĠ": 3230,
      "53": 3231,
      "yper": 3232,
      "Ġdep": 3233,
      "Ġstop": 3234,
      "52": 3235,
      "ont": 3236,
      "Ġdb": 3237,
      "struction": 3238,
      "Ġrotated": 3239,
      "Ġbinary": 3240,
      "82": 3241,
      "Ġmer": 3242,
      "Ġencoding": 3243,
      "Ġanswer": 3244,
      "Ġrender": 3245,
      "Ġneg": 3246,
      "chn": 3247,
      "color": 3248,
      "exception": 3249,
      "ĠPyPI": 3250,
      "pha": 3251,
      "Doc": 3252,
      "Ġ((": 3253,
      "dist": 3254,
      "reen": 3255,
      "mand": 3256,
      "llegal": 3257,
      "Ġoffset": 3258,
      "ursor": 3259,
      "Ġless": 3260,
      "child": 3261,
      "sdk": 3262,
      "ording": 3263,
      "vis": 3264,
      "Ġchecks": 3265,
      "ean": 3266,
      "Ġaverage": 3267,
      "Ġprefix": 3268,
      "EX": 3269,
      "Ġinfo": 3270,
      "step": 3271,
      "Ġpot": 3272,
      "Ġcluster": 3273,
      "Gener": 3274,
      "Ġissue": 3275,
      "It": 3276,
      "Ġintro": 3277,
      "Ġcolumns": 3278,
      "79": 3279,
      "Ġhum": 3280,
      "Query": 3281,
      "Code": 3282,
      "\\\\": 3283,
      "Ġalong": 3284,
      "Ġfail": 3285,
      "Ġinstalling": 3286,
      "Ġpartic": 3287,
      "ĠReturn": 3288,
      "ident": 3289,
      "ĠAnd": 3290,
      "ret": 3291,
      "Factory": 3292,
      "Ġtoo": 3293,
      "Call": 3294,
      "Ġscal": 3295,
      "Status": 3296,
      "Ġcent": 3297,
      "cls": 3298,
      "ane": 3299,
      "Ġtf": 3300,
      "US": 3301,
      "otal": 3302,
      "chron": 3303,
      "How": 3304,
      "Ġge": 3305,
      "Dec": 3306,
      "ries": 3307,
      "72": 3308,
      "Ġaccept": 3309,
      "ĠOur": 3310,
      "Ġprior": 3311,
      "Ġknowledge": 3312,
      "local": 3313,
      "points": 3314,
      "}.": 3315,
      "parent": 3316,
      "PT": 3317,
      "ĠAN": 3318,
      "Ġclos": 3319,
      "Ġsetting": 3320,
      "76": 3321,
      "ĠâĤ¬": 3322,
      "Connection": 3323,
      "Ġmight": 3324,
      "mer": 3325,
      "sign": 3326,
      "Utils": 3327,
      "Ġmeans": 3328,
      "pc": 3329,
      "breki": 3330,
      "Ġsay": 3331,
      "hsa": 3332,
      "ansp": 3333,
      "Ġsplit": 3334,
      "Ġcollection": 3335,
      "Ġart": 3336,
      "ested": 3337,
      "ples": 3338,
      "Ġghsa": 3339,
      "Cont": 3340,
      "Ġ(!": 3341,
      "Ġdemonstr": 3342,
      "SI": 3343,
      "TI": 3344,
      "ĠFinally": 3345,
      "Format": 3346,
      "Ġclasses": 3347,
      "most": 3348,
      "Invalid": 3349,
      "bar": 3350,
      "Del": 3351,
      "Ġsampl": 3352,
      "ermin": 3353,
      "Ġenvironment": 3354,
      "Ġtensor": 3355,
      "ĠApp": 3356,
      "ĠCol": 3357,
      "001": 3358,
      "Ġ2020": 3359,
      "element": 3360,
      "stract": 3361,
      "Ġproduct": 3362,
      "Ġmuch": 3363,
      "Ġfew": 3364,
      "SC": 3365,
      "mbol": 3366,
      "83": 3367,
      "page": 3368,
      "ĠHTTP": 3369,
      "Ġweight": 3370,
      "IND": 3371,
      "Ġsegment": 3372,
      "angle": 3373,
      "aj": 3374,
      "Ġ?": 3375,
      "atform": 3376,
      "any": 3377,
      "Ġtimes": 3378,
      "Ġconn": 3379,
      "Token": 3380,
      "requency": 3381,
      "tempt": 3382,
      "body": 3383,
      "Ġcell": 3384,
      "spec": 3385,
      "Ġkeep": 3386,
      "ys": 3387,
      "Ġhig": 3388,
      "Count": 3389,
      "ĠBy": 3390,
      "Ġmetadata": 3391,
      "Ġtrained": 3392,
      "Ġbatch": 3393,
      "src": 3394,
      "Ġ12": 3395,
      "URL": 3396,
      "Ġwindow": 3397,
      "ippet": 3398,
      "Ġlocation": 3399,
      "Ġdevice": 3400,
      "Ġcomplete": 3401,
      "Ġturn": 3402,
      "olume": 3403,
      "Ġalways": 3404,
      "Ġben": 3405,
      "Ġcome": 3406,
      "rapper": 3407,
      "Ġsupport": 3408,
      "ĠInt": 3409,
      "Ġcomplex": 3410,
      "first": 3411,
      "ackage": 3412,
      "Ġdefine": 3413,
      "Dis": 3414,
      "sup": 3415,
      "Case": 3416,
      "Parser": 3417,
      "lines": 3418,
      "idden": 3419,
      "day": 3420,
      "73": 3421,
      "Ġdirectly": 3422,
      "Ġpix": 3423,
      "Ġglobal": 3424,
      "stand": 3425,
      "hip": 3426,
      "Ġcross": 3427,
      "Ġbit": 3428,
      "istic": 3429,
      "Ġrepresents": 3430,
      "Ġworks": 3431,
      "Rem": 3432,
      "ĠIN": 3433,
      "logger": 3434,
      "www": 3435,
      "Ġcallback": 3436,
      "]]": 3437,
      "ouse": 3438,
      "Ġcls": 3439,
      "Ġtimeout": 3440,
      "NAME": 3441,
      "conf": 3442,
      "tc": 3443,
      "Ġcap": 3444,
      "Pr": 3445,
      "Ġown": 3446,
      "Ġsimple": 3447,
      "Ġregular": 3448,
      "ĠZh": 3449,
      "06": 3450,
      "Ġsets": 3451,
      "FF": 3452,
      "lay": 3453,
      ")):": 3454,
      "Ġzero": 3455,
      "andas": 3456,
      "API": 3457,
      "Ġbuffer": 3458,
      "na": 3459,
      "Ġhttps": 3460,
      "template": 3461,
      "Ġconver": 3462,
      "Ġimp": 3463,
      "Ġpairs": 3464,
      "Ġ2021": 3465,
      "HE": 3466,
      "ĠGet": 3467,
      "fs": 3468,
      "TML": 3469,
      "ĠCreate": 3470,
      "aving": 3471,
      "08": 3472,
      "Ġusers": 3473,
      "Str": 3474,
      "reshold": 3475,
      "password": 3476,
      "Ġ200": 3477,
      "********": 3478,
      "Ġdig": 3479,
      "!âĢĿ": 3480,
      "ĠKey": 3481,
      "ĠIOException": 3482,
      "Ġpop": 3483,
      "čĊ": 3484,
      "ĠQu": 3485,
      "det": 3486,
      "ife": 3487,
      "ĠFig": 3488,
      "ĠLO": 3489,
      "Ġtitle": 3490,
      "But": 3491,
      "gen": 3492,
      "Ġstack": 3493,
      "egr": 3494,
      "Ġadapt": 3495,
      "Process": 3496,
      "site": 3497,
      "django": 3498,
      "strip": 3499,
      "package": 3500,
      "izing": 3501,
      "settings": 3502,
      "clude": 3503,
      "ĠTrans": 3504,
      "book": 3505,
      "ialog": 3506,
      "Ġselect": 3507,
      "math": 3508,
      "ump": 3509,
      "Ġincluding": 3510,
      "[-": 3511,
      "09": 3512,
      "Ġedge": 3513,
      "arm": 3514,
      "ĠIllegal": 3515,
      "Parameter": 3516,
      "Ġsend": 3517,
      "Ġclear": 3518,
      "03": 3519,
      "Ġheaders": 3520,
      "mode": 3521,
      "FA": 3522,
      "Ġdjango": 3523,
      "kiw": 3524,
      "Can": 3525,
      "itect": 3526,
      "Ġing": 3527,
      "Ġsignific": 3528,
      "Ġscale": 3529,
      "ything": 3530,
      "Ġsyn": 3531,
      "cmd": 3532,
      "hing": 3533,
      "Ġrate": 3534,
      "iers": 3535,
      "Ġconsist": 3536,
      "Ġdue": 3537,
      "`:": 3538,
      "Task": 3539,
      "Ġbot": 3540,
      "itude": 3541,
      "Ġbehav": 3542,
      "send": 3543,
      "job": 3544,
      "apped": 3545,
      "Ġsuff": 3546,
      "Ġemp": 3547,
      "sk": 3548,
      "uey": 3549,
      "ops": 3550,
      "Ġ(\"": 3551,
      "Ġdouble": 3552,
      "ĠExample": 3553,
      "Ġconstrain": 3554,
      "sluey": 3555,
      "ignment": 3556,
      "fit": 3557,
      "================": 3558,
      "Ġsynt": 3559,
      "Ġonce": 3560,
      "Ġfe": 3561,
      "Ġterms": 3562,
      "ogn": 3563,
      "Exec": 3564,
      "Ġpositive": 3565,
      "TER": 3566,
      "Ġsat": 3567,
      "egers": 3568,
      "Ġfine": 3569,
      "oper": 3570,
      "ATE": 3571,
      "erty": 3572,
      "ernel": 3573,
      "Ġplace": 3574,
      "];": 3575,
      "Ġembedding": 3576,
      "hash": 3577,
      "Ġterm": 3578,
      "ĠSec": 3579,
      "objects": 3580,
      "Ġround": 3581,
      "Ġdepth": 3582,
      "board": 3583,
      "Flow": 3584,
      "engine": 3585,
      "bytes": 3586,
      "Ġcommun": 3587,
      "Ġsentence": 3588,
      "riris": 3589,
      "Ġinputs": 3590,
      "missions": 3591,
      "({": 3592,
      "hel": 3593,
      "Ġcr": 3594,
      "Ġrespectively": 3595,
      "(_": 3596,
      "Version": 3597,
      "Ġsnippet": 3598,
      "ucket": 3599,
      "Ġsalt": 3600,
      "Ġsem": 3601,
      "Ġframework": 3602,
      "greg": 3603,
      "redentials": 3604,
      "cur": 3605,
      "Ġregister": 3606,
      "urren": 3607,
      "Ġmov": 3608,
      "ĠĠĠĠĠĠĠĠĠĠĠĠĠĠĠĠĠĠĠĠ": 3609,
      "Ġuni": 3610,
      "scri": 3611,
      "ĠClass": 3612,
      "ĠMod": 3613,
      "pred": 3614,
      "sukiw": 3615,
      "sukiwir": 3616,
      "location": 3617,
      "ĠSim": 3618,
      "ĠTest": 3619,
      "patch": 3620,
      "ĠNo": 3621,
      "istory": 3622,
      "Ġattention": 3623,
      "EL": 3624,
      "stants": 3625,
      "Ġwidth": 3626,
      "Ġchannel": 3627,
      "ĠWh": 3628,
      "prefix": 3629,
      "Ġexecute": 3630,
      "Attribute": 3631,
      "Ġwait": 3632,
      "igger": 3633,
      "Ġanalysis": 3634,
      "ï¼": 3635,
      "Ġauth": 3636,
      "Ġensure": 3637,
      "--------------------------------": 3638,
      "Ġgrad": 3639,
      "Ġcomponent": 3640,
      "ks": 3641,
      "tree": 3642,
      "Char": 3643,
      "idual": 3644,
      "hentication": 3645,
      "marshall": 3646,
      "ĠOption": 3647,
      "datetime": 3648,
      "txt": 3649,
      "Ġmed": 3650,
      "Ġremote": 3651,
      "Ġcost": 3652,
      "Ġaxis": 3653,
      "\"))": 3654,
      "ĠRun": 3655,
      "Ġacross": 3656,
      "lev": 3657,
      "ceed": 3658,
      "cr": 3659,
      "std": 3660,
      "Param": 3661,
      "Ġfollows": 3662,
      "Ġdesign": 3663,
      "only": 3664,
      "ĠOr": 3665,
      "show": 3666,
      "Ġaccording": 3667,
      "Valid": 3668,
      "Next": 3669,
      "ele": 3670,
      "ah": 3671,
      "ermine": 3672,
      "ĠArray": 3673,
      "header": 3674,
      "Ġreason": 3675,
      "uning": 3676,
      "iance": 3677,
      "Ġpres": 3678,
      "ntity": 3679,
      "Buffer": 3680,
      "cp": 3681,
      "Ġsqu": 3682,
      "ici": 3683,
      "Column": 3684,
      "pk": 3685,
      "Ġsche": 3686,
      "$.": 3687,
      "Ġmatching": 3688,
      "Ġcompute": 3689,
      "Number": 3690,
      "Ġdirection": 3691,
      "41": 3692,
      "rest": 3693,
      "Ġfour": 3694,
      "ulate": 3695,
      "ilt": 3696,
      "returns": 3697,
      "Ġhash": 3698,
      "Ġvisual": 3699,
      "domain": 3700,
      "Ġmot": 3701,
      "Ġdelete": 3702,
      "cloud": 3703,
      "](": 3704,
      "lation": 3705,
      "Ġpolicy": 3706,
      "parser": 3707,
      "ses": 3708,
      "Ġprompt": 3709,
      "Ġtechn": 3710,
      "Content": 3711,
      ".\")": 3712,
      "Ġrev": 3713,
      "Ġ'.": 3714,
      "Ġuntil": 3715,
      "ĠAp": 3716,
      "Read": 3717,
      "axis": 3718,
      "Filter": 3719,
      "ometry": 3720,
      "bose": 3721,
      "Ġleast": 3722,
      "Ġable": 3723,
      "ittle": 3724,
      "Ġattr": 3725,
      "Ġvert": 3726,
      "Ġlayers": 3727,
      "Page": 3728,
      "MP": 3729,
      "toString": 3730,
      "Ġdone": 3731,
      "Ġcases": 3732,
      "Met": 3733,
      "Ġfin": 3734,
      "Ġrefer": 3735,
      "long": 3736,
      "space": 3737,
      "Ġauthor": 3738,
      "ocus": 3739,
      "61": 3740,
      "Ġcapt": 3741,
      "Ġcreating": 3742,
      "description": 3743,
      "OV": 3744,
      "Ġweights": 3745,
      "Ġnecessary": 3746,
      "ugg": 3747,
      "Ġhuman": 3748,
      "ĠEn": 3749,
      "Ġmult": 3750,
      "hentic": 3751,
      "Ġquestion": 3752,
      "Ġrest": 3753,
      "Ġrule": 3754,
      "Ġgen": 3755,
      "ational": 3756,
      "actor": 3757,
      "sql": 3758,
      "Ġsom": 3759,
      "sq": 3760,
      "Ġwr": 3761,
      "Ġlinear": 3762,
      "Ġmodify": 3763,
      "Ġintegers": 3764,
      "Ġrows": 3765,
      "Oper": 3766,
      "ater": 3767,
      "ĠprotocolMarshaller": 3768,
      "Ġdf": 3769,
      "matrix": 3770,
      "000000": 3771,
      "Ġmissing": 3772,
      "Component": 3773,
      "property": 3774,
      "Ġside": 3775,
      "Ġoperations": 3776,
      "Ġflow": 3777,
      "(*": 3778,
      "Ġserial": 3779,
      "irt": 3780,
      "agr": 3781,
      "Ġvalidate": 3782,
      "vider": 3783,
      "Ġ15": 3784,
      "Ġshort": 3785,
      "just": 3786,
      "Ġrob": 3787,
      "Line": 3788,
      "ply": 3789,
      "Ġwent": 3790,
      "Ġgeneration": 3791,
      "Start": 3792,
      "Session": 3793,
      "uth": 3794,
      "aged": 3795,
      "parameters": 3796,
      "Ġsave": 3797,
      "roller": 3798,
      "Ġutil": 3799,
      "ĠPr": 3800,
      "connect": 3801,
      "ething": 3802,
      "Ġdraw": 3803,
      "ensity": 3804,
      "Image": 3805,
      "Ġfactor": 3806,
      "press": 3807,
      "Ġversions": 3808,
      "sem": 3809,
      "Ġinvalid": 3810,
      "aug": 3811,
      "ourse": 3812,
      "51": 3813,
      "lex": 3814,
      "Server": 3815,
      "come": 3816,
      "tt": 3817,
      "exists": 3818,
      "register": 3819,
      "actions": 3820,
      "encode": 3821,
      "Ġupdated": 3822,
      "Ġraw": 3823,
      "2024": 3824,
      "sim": 3825,
      "training": 3826,
      "Ġdynam": 3827,
      "Ġscen": 3828,
      "save": 3829,
      "Ġarchitect": 3830,
      "Ġcompare": 3831,
      "istics": 3832,
      "Ġseconds": 3833,
      "ech": 3834,
      "xim": 3835,
      "Us": 3836,
      "What": 3837,
      "Ġhapp": 3838,
      "Sec": 3839,
      "Ġseem": 3840,
      "ords": 3841,
      "scale": 3842,
      "Ġdimension": 3843,
      "Ġface": 3844,
      "ighb": 3845,
      "ĠĠĠĠĠĠĊ": 3846,
      "ĠĠĠĠĠĠĠĠĠĠĠĠĠĠĠĠĠĠ": 3847,
      "Ġexperiments": 3848,
      "undle": 3849,
      "ULT": 3850,
      "ĠLOG": 3851,
      "starts": 3852,
      "abs": 3853,
      "Ġneural": 3854,
      "Found": 3855,
      "aches": 3856,
      "Cms": 3857,
      "Ġfit": 3858,
      "TR": 3859,
      "pute": 3860,
      "Ġnever": 3861,
      "2021": 3862,
      "Ġbox": 3863,
      "solute": 3864,
      "ker": 3865,
      "cell": 3866,
      "ipeline": 3867,
      "End": 3868,
      "vari": 3869,
      "2022": 3870,
      "Ġcar": 3871,
      "MA": 3872,
      "Pre": 3873,
      "Ġachiev": 3874,
      "acing": 3875,
      "sm": 3876,
      "Ġsignificant": 3877,
      "Ġsupported": 3878,
      "aww": 3879,
      "ople": 3880,
      "miaww": 3881,
      "ATION": 3882,
      "Configuration": 3883,
      "ĠThey": 3884,
      "Ġtion": 3885,
      "fully": 3886,
      "çļ": 3887,
      "connection": 3888,
      "çļĦ": 3889,
      "Ġassum": 3890,
      "Ġamount": 3891,
      "Impl": 3892,
      "Ab": 3893,
      "forms": 3894,
      "Dat": 3895,
      "cel": 3896,
      "Ġsumm": 3897,
      "nodes": 3898,
      "Ġtrack": 3899,
      "ival": 3900,
      "ĠVal": 3901,
      "Ġ{\"": 3902,
      "Null": 3903,
      "Ġlists": 3904,
      "tom": 3905,
      "Ġvarious": 3906,
      "Ġstyle": 3907,
      "Ġcloud": 3908,
      "81": 3909,
      "Ap": 3910,
      "\"),": 3911,
      "Ġregion": 3912,
      "pri": 3913,
      "ited": 3914,
      "Ġfuture": 3915,
      "ĠThere": 3916,
      "Ġapi": 3917,
      "Ġsure": 3918,
      "Ġquant": 3919,
      "Ġmatches": 3920,
      "Tree": 3921,
      "bound": 3922,
      "way": 3923,
      "Ġclassification": 3924,
      "Ġreplace": 3925,
      "/@": 3926,
      "Ġmachine": 3927,
      "HO": 3928,
      "gether": 3929,
      "Ġclose": 3930,
      "ĠTensor": 3931,
      "ĠĠĠĠĠĠĠĠĠĠĠĠĠĠĠĠĠĠĠĠĠ": 3932,
      "Ġshows": 3933,
      "ĠOutput": 3934,
      "script": 3935,
      "ĠPl": 3936,
      "mask": 3937,
      "Source": 3938,
      "bool": 3939,
      "Tem": 3940,
      "Ġ[\"": 3941,
      "Ġworld": 3942,
      "``.": 3943,
      "EST": 3944,
      "={": 3945,
      "Ġhyper": 3946,
      "2020": 3947,
      "Ġever": 3948,
      "'].": 3949,
      "Ġcontr": 3950,
      "results": 3951,
      "endix": 3952,
      "Pos": 3953,
      "inc": 3954,
      "'}": 3955,
      "=[": 3956,
      "ports": 3957,
      "Ġdtype": 3958,
      "Ġ2019": 3959,
      "offset": 3960,
      "ĠOther": 3961,
      "ls": 3962,
      "Is": 3963,
      "Function": 3964,
      "unit": 3965,
      "Ġpropose": 3966,
      "Ass": 3967,
      "ArgumentException": 3968,
      "sample": 3969,
      "Ġrobust": 3970,
      "iant": 3971,
      "ĠÐ": 3972,
      "LM": 3973,
      "exit": 3974,
      "tools": 3975,
      "Ġdesired": 3976,
      "Ġey": 3977,
      "lambda": 3978,
      "aff": 3979,
      "metadata": 3980,
      "ertific": 3981,
      "uilt": 3982,
      "alculate": 3983,
      "Ġtasked": 3984,
      "NU": 3985,
      "Ġpower": 3986,
      "ites": 3987,
      "Ġactual": 3988,
      "where": 3989,
      "91": 3990,
      "ology": 3991,
      "fn": 3992,
      "Ġcmd": 3993,
      "IP": 3994,
      "ĠEach": 3995,
      "TH": 3996,
      "active": 3997,
      "enu": 3998,
      "Ġspecify": 3999,
      "WS": 4000,
      "chang": 4001,
      "Ġemail": 4002,
      "Ġapplic": 4003,
      "duced": 4004,
      "Cache": 4005,
      "execute": 4006,
      "Ġ`_": 4007,
      "ĠMon": 4008,
      "*-": 4009,
      "ĠRec": 4010,
      "Ġexecut": 4011,
      "network": 4012,
      "Ġschema": 4013,
      "compl": 4014,
      "Ġinstances": 4015,
      "Ġheight": 4016,
      "Ġlight": 4017,
      "Ġmapping": 4018,
      "Ġunderstand": 4019,
      "pect": 4020,
      "Ġ(`": 4021,
      "Ġorg": 4022,
      "Ġrelations": 4023,
      "Ġevaluate": 4024,
      "mut": 4025,
      "alf": 4026,
      "esh": 4027,
      "Ġear": 4028,
      "ĠYour": 4029,
      "sent": 4030,
      "atio": 4031,
      "Names": 4032,
      "ĠIP": 4033,
      "Ġpotential": 4034,
      "Ġattacker": 4035,
      "Ġ16": 4036,
      ")),": 4037,
      "2023": 4038,
      "Ġforward": 4039,
      "Block": 4040,
      "{@": 4041,
      "cast": 4042,
      "Ġhold": 4043,
      "tf": 4044,
      "non": 4045,
      "Iter": 4046,
      "super": 4047,
      "Ġred": 4048,
      "Ġinterval": 4049,
      "Action": 4050,
      "ism": 4051,
      "Ġretriev": 4052,
      "KE": 4053,
      "Update": 4054,
      "SP": 4055,
      "DI": 4056,
      "Ġdeep": 4057,
      "Ġlittle": 4058,
      "Ġexamples": 4059,
      "foo": 4060,
      "App": 4061,
      "Ġusername": 4062,
      "<?": 4063,
      "uples": 4064,
      "Pol": 4065,
      "Ġpd": 4066,
      "csv": 4067,
      "anc": 4068,
      "ptor": 4069,
      "Ġhard": 4070,
      "stop": 4071,
      "Ġagent": 4072,
      "Ġmessages": 4073,
      "Ġsignal": 4074,
      "Ġinterface": 4075,
      "handle": 4076,
      "Ġcombin": 4077,
      "email": 4078,
      "Ġnear": 4079,
      "Ġnegative": 4080,
      "but": 4081,
      "known": 4082,
      "Ġclean": 4083,
      "evel": 4084,
      "Ġcame": 4085,
      "antic": 4086,
      "batch": 4087,
      "rees": 4088,
      "Ġ-*-": 4089,
      "Ġqueue": 4090,
      "total": 4091,
      "ird": 4092,
      "Ġfailed": 4093,
      "Ġprobability": 4094,
      "Ġexplo": 4095,
      "Figure": 4096,
      "Ġ:=": 4097,
      "Ġdistributed": 4098,
      "Ġdoesn": 4099,
      "bers": 4100,
      "Ġrelated": 4101,
      "gn": 4102,
      "Ġimprove": 4103,
      "system": 4104,
      "ours": 4105,
      "everal": 4106,
      "Ġgoogle": 4107,
      "Ġenumer": 4108,
      "Ġhandler": 4109,
      "Ġ'/": 4110,
      "ĠCao": 4111,
      "sequence": 4112,
      "tected": 4113,
      "change": 4114,
      "conn": 4115,
      "Ġvideo": 4116,
      "Trace": 4117,
      "author": 4118,
      "Det": 4119,
      "Empty": 4120,
      "Ġcertain": 4121,
      "irc": 4122,
      "iddle": 4123,
      "Integer": 4124,
      "Ġbehavior": 4125,
      "grid": 4126,
      "required": 4127,
      "Job": 4128,
      "Ġdefinition": 4129,
      "OL": 4130,
      "trained": 4131,
      "Ġaway": 4132,
      "Lib": 4133,
      "Ġsetup": 4134,
      "Link": 4135,
      "=(": 4136,
      "System": 4137,
      "ibility": 4138,
      "Store": 4139,
      "mean": 4140,
      "Ġgrid": 4141,
      "Ġaff": 4142,
      "device": 4143,
      "Wh": 4144,
      "Ġchain": 4145,
      "ĠMap": 4146,
      "Access": 4147,
      "Ġ\"\"": 4148,
      "Ġreplac": 4149,
      "leep": 4150,
      "callback": 4151,
      "ivation": 4152,
      "Ġexperiment": 4153,
      "Ġstarting": 4154,
      "Ġattempt": 4155,
      "Ġgl": 4156,
      "Ġdetermin": 4157,
      "Ġperson": 4158,
      "argument": 4159,
      "andid": 4160,
      "Ġnamespace": 4161,
      "Ġgive": 4162,
      "Ġknown": 4163,
      "score": 4164,
      "otes": 4165,
      "Contain": 4166,
      "Ġbegin": 4167,
      "200": 4168,
      "Dev": 4169,
      "Ġselected": 4170,
      "ublished": 4171,
      "allel": 4172,
      "Ġparticular": 4173,
      "headers": 4174,
      "aim": 4175,
      "Ġeas": 4176,
      "username": 4177,
      "?\"": 4178,
      "Ġrecurs": 4179,
      "Ġendpoint": 4180,
      "uc": 4181,
      "vised": 4182,
      "atural": 4183,
      "Ġinit": 4184,
      "ĠAd": 4185,
      "install": 4186,
      "ĠĠĠĠĠĠĠĠĠĠĠĠĠĠĠĠĠĠĠĠĠĠĠĠĠĠĠĠĠĠĠĠĠĠĠ": 4187,
      "aises": 4188,
      "VER": 4189,
      "dig": 4190,
      "Ġbook": 4191,
      "ĠGeneral": 4192,
      "ished": 4193,
      "ips": 4194,
      "Address": 4195,
      "idence": 4196,
      "common": 4197,
      "vm": 4198,
      "Length": 4199,
      "ĠHTML": 4200,
      "Ġ'%": 4201,
      "Ġnetworks": 4202,
      "Ġ'\\": 4203,
      "71": 4204,
      "Ad": 4205,
      "rs": 4206,
      "ĠOR": 4207,
      "umbers": 4208,
      "att": 4209,
      "Ġground": 4210,
      "cal": 4211,
      "rl": 4212,
      "Ġcalls": 4213,
      "alleng": 4214,
      "mar": 4215,
      "ĠIllegalArgumentException": 4216,
      "Ġparts": 4217,
      "pattern": 4218,
      "Ġseen": 4219,
      "sqrt": 4220,
      "Ġgot": 4221,
      "Ġnumer": 4222,
      "Ġthink": 4223,
      "Ġyet": 4224,
      "access": 4225,
      "++)": 4226,
      "Entity": 4227,
      "limit": 4228,
      "Ġut": 4229,
      "buffer": 4230,
      "notation": 4231,
      "Ġinstanceof": 4232,
      "ĠSystem": 4233,
      "layer": 4234,
      "make": 4235,
      "analy": 4236,
      "Ġnoise": 4237,
      "diff": 4238,
      "ĠĠĠĠĠĠĠĠĠĠĠĠĠĠĠĠĠĠĠĠĠĠĠĠĠ": 4239,
      "Ġflag": 4240,
      "Ġ000000": 4241,
      "example": 4242,
      "Ġhimself": 4243,
      "Ġexecution": 4244,
      "sn": 4245,
      "Ðµ": 4246,
      "validate": 4247,
      "').": 4248,
      "draw": 4249,
      "Enc": 4250,
      "Ġrelative": 4251,
      "ĠNow": 4252,
      "Ġallowed": 4253,
      "Ð¾": 4254,
      "img": 4255,
      "ĠAss": 4256,
      "Ġbo": 4257,
      "TYPE": 4258,
      "PRO": 4259,
      "eal": 4260,
      "Ġupon": 4261,
      "gy": 4262,
      "Ġprovides": 4263,
      "ĠWhat": 4264,
      "ĠĠĠĠĠĠĠĠĠĠĠĠĠĠĠĠĠĠĠĠĠĠ": 4265,
      "docs": 4266,
      "plugin": 4267,
      "wards": 4268,
      "'re": 4269,
      "Ġpool": 4270,
      "Ġcoordinates": 4271,
      "Ġtags": 4272,
      "Cre": 4273,
      "PL": 4274,
      "generate": 4275,
      "Ġ11": 4276,
      "Ġprocessing": 4277,
      "ause": 4278,
      "âĸ": 4279,
      "Ġappropri": 4280,
      "Ġchunk": 4281,
      "Ġnov": 4282,
      "Ġmetrics": 4283,
      "Ġdu": 4284,
      "Ġminimum": 4285,
      "Ġthough": 4286,
      "Ġupper": 4287,
      "secon": 4288,
      "Ġplt": 4289,
      "Ġefficient": 4290,
      "BIND": 4291,
      "Ġnothing": 4292,
      "Command": 4293,
      "Ġĉ": 4294,
      "Ġfocus": 4295,
      "Ġsequ": 4296,
      "ressed": 4297,
      "Collection": 4298,
      "ĠCan": 4299,
      "Ġbar": 4300,
      "entity": 4301,
      "byte": 4302,
      "Ġinf": 4303,
      "Ġmeasure": 4304,
      ")\\": 4305,
      "ula": 4306,
      "Ġneeded": 4307,
      "Ġoperator": 4308,
      "getName": 4309,
      "Ġdetermine": 4310,
      "ODO": 4311,
      "Ġ\"/": 4312,
      "ĠGo": 4313,
      "account": 4314,
      "Ġrequires": 4315,
      "decode": 4316,
      "XX": 4317,
      "ĠDefault": 4318,
      "Ġes": 4319,
      "ilities": 4320,
      "ember": 4321,
      "Ġhigher": 4322,
      "TO": 4323,
      "Ġcommands": 4324,
      "ring": 4325,
      "duction": 4326,
      "Ġcollect": 4327,
      "Ġdir": 4328,
      "ividual": 4329,
      "BINDING": 4330,
      "Ġcontainer": 4331,
      "initial": 4332,
      "Ġdownload": 4333,
      "Ġforce": 4334,
      "Ġlater": 4335,
      ")}": 4336,
      "Sel": 4337,
      "aging": 4338,
      "apshot": 4339,
      "dataset": 4340,
      "ront": 4341,
      "orator": 4342,
      "zer": 4343,
      "Dir": 4344,
      "Ġextra": 4345,
      "Ġcomb": 4346,
      "Ġindices": 4347,
      "Ġseveral": 4348,
      "Dict": 4349,
      "Ġencoder": 4350,
      "Ġapproxim": 4351,
      "that": 4352,
      "sys": 4353,
      "Ġsomething": 4354,
      "Ġfill": 4355,
      "ITY": 4356,
      "Ġnet": 4357,
      "olver": 4358,
      "container": 4359,
      "Acc": 4360,
      "Ġfrequency": 4361,
      "PM": 4362,
      "Ġtemp": 4363,
      "zip": 4364,
      "Header": 4365,
      "isf": 4366,
      "Ġsrc": 4367,
      "ĠImage": 4368,
      "ĠUs": 4369,
      "Ġdifference": 4370,
      "bitrary": 4371,
      "amily": 4372,
      "ĉĉĉĉĉ": 4373,
      "Ġfore": 4374,
      "ried": 4375,
      "ĠFl": 4376,
      "Ġresources": 4377,
      "\">": 4378,
      "admin": 4379,
      "UP": 4380,
      "Ġill": 4381,
      "oke": 4382,
      "ERT": 4383,
      "`)": 4384,
      "Ġreverse": 4385,
      "()))": 4386,
      "schema": 4387,
      "Ġinsert": 4388,
      "Ġstd": 4389,
      "Ġconditions": 4390,
      "]))": 4391,
      "Ġesc": 4392,
      "ĠUser": 4393,
      "expected": 4394,
      "Per": 4395,
      "Ġgreater": 4396,
      "Ġsubject": 4397,
      "tests": 4398,
      "Ġtogether": 4399,
      "Ġkeyword": 4400,
      "Ġcomponents": 4401,
      "sv": 4402,
      "rev": 4403,
      "Ġseries": 4404,
      "Ġcover": 4405,
      "Ġevaluation": 4406,
      "iving": 4407,
      "Ġpeople": 4408,
      "nol": 4409,
      "Ġtransfer": 4410,
      "bas": 4411,
      "side": 4412,
      "seq": 4413,
      "Ġcommit": 4414,
      "parameter": 4415,
      "icro": 4416,
      "Ġprop": 4417,
      "bro": 4418,
      "lin": 4419,
      "Ġsens": 4420,
      "ertificate": 4421,
      "Ġ30": 4422,
      "Ġmag": 4423,
      "Ġnote": 4424,
      "ĠName": 4425,
      "ĠRem": 4426,
      "Level": 4427,
      "Ġapplied": 4428,
      "Ġconnect": 4429,
      "Ġextension": 4430,
      "0001": 4431,
      "Default": 4432,
      "Ġcompared": 4433,
      "Ġmetric": 4434,
      "she": 4435,
      "ĠXML": 4436,
      "full": 4437,
      "ĠĠĊ": 4438,
      "aml": 4439,
      "Ġwor": 4440,
      "style": 4441,
      "sole": 4442,
      "lying": 4443,
      "Ġidentifier": 4444,
      "ĠAut": 4445,
      "ĠCLI": 4446,
      "Ġperiod": 4447,
      "handler": 4448,
      "cli": 4449,
      "labels": 4450,
      "Ġtempor": 4451,
      "FAULT": 4452,
      "Ġgoing": 4453,
      "Ġ$\\": 4454,
      "atches": 4455,
      "Ġcalling": 4456,
      "Point": 4457,
      "ĠOptional": 4458,
      "ral": 4459,
      "Ġstudy": 4460,
      "Ġ},": 4461,
      "Ġasked": 4462,
      "annels": 4463,
      "ĠWith": 4464,
      "Ġtell": 4465,
      "Ġshall": 4466,
      "erence": 4467,
      "Ġcal": 4468,
      ")(": 4469,
      "astax": 4470,
      "Ġrepresentations": 4471,
      "udio": 4472,
      "Reader": 4473,
      "Ġoptimization": 4474,
      "Ġfeed": 4475,
      "rate": 4476,
      "tuple": 4477,
      "Ġstrong": 4478,
      ".')": 4479,
      "orts": 4480,
      "zal": 4481,
      "IF": 4482,
      "LP": 4483,
      "ising": 4484,
      "Ġwhole": 4485,
      "Ġcomputation": 4486,
      "Ġavoid": 4487,
      "manager": 4488,
      "Tag": 4489,
      "Ġpur": 4490,
      "oose": 4491,
      "Ġpaths": 4492,
      "Ġgroups": 4493,
      "Ġretrieve": 4494,
      "aken": 4495,
      "Ġreceived": 4496,
      "Ġdetection": 4497,
      "timeout": 4498,
      "MS": 4499,
      "ĠĠĠĠĠĠĠĠĠĠĠĠĠĠĠĠĠĠĠĠĠĠĠĠĠĠĠĠ": 4500,
      "ĠAppendix": 4501,
      "Ġparsed": 4502,
      "condition": 4503,
      "aver": 4504,
      "ably": 4505,
      "Ġitself": 4506,
      "2019": 4507,
      "perature": 4508,
      "Ġhor": 4509,
      "Ġ\",": 4510,
      "Ġstatement": 4511,
      "serial": 4512,
      "Ġpandas": 4513,
      "']['": 4514,
      "Ġquality": 4515,
      "Ġtc": 4516,
      "ĠĠĠĠĠĠĠĠĠĠĠĠĠĠĠĠĠĠĠĠĠĠĠĠĠĠ": 4517,
      "Http": 4518,
      "ĠâĢĶ": 4519,
      "Ġdeg": 4520,
      ":]": 4521,
      "orch": 4522,
      "Ġneeds": 4523,
      "icit": 4524,
      "nolb": 4525,
      "zalastax": 4526,
      "directory": 4527,
      "Ġgenerator": 4528,
      "ï¼Į": 4529,
      "tml": 4530,
      "imary": 4531,
      "squ": 4532,
      "temp": 4533,
      "Ġetc": 4534,
      "ĠSQL": 4535,
      "era": 4536,
      "Ġfree": 4537,
      "Record": 4538,
      "xx": 4539,
      "'ll": 4540,
      "aved": 4541,
      "tensorflow": 4542,
      "Ġthus": 4543,
      "oring": 4544,
      "ih": 4545,
      "orig": 4546,
      "height": 4547,
      "Ġrank": 4548,
      "Rep": 4549,
      "Ġpublished": 4550,
      "alog": 4551,
      "Ġarea": 4552,
      "\"):": 4553,
      "tk": 4554,
      "ves": 4555,
      "duc": 4556,
      "DF": 4557,
      "lab": 4558,
      "ered": 4559,
      "']:": 4560,
      "Ġenv": 4561,
      "'''": 4562,
      "google": 4563,
      "async": 4564,
      "[:,": 4565,
      "Ġtheore": 4566,
      "Ġasync": 4567,
      "GET": 4568,
      "alance": 4569,
      "empty": 4570,
      "IG": 4571,
      "div": 4572,
      "Ġaround": 4573,
      "When": 4574,
      "Ġthreshold": 4575,
      "section": 4576,
      "ĠPublic": 4577,
      "LOG": 4578,
      "(-": 4579,
      "Ġ),": 4580,
      "stats": 4581,
      "Example": 4582,
      "Ġwriting": 4583,
      "NO": 4584,
      "0012": 4585,
      "Ġkind": 4586,
      "åı": 4587,
      "Ġindicating": 4588,
      "Expression": 4589,
      "Ġenumerate": 4590,
      "ym": 4591,
      "ience": 4592,
      "Ġsignature": 4593,
      "ĠOtherwise": 4594,
      ".'": 4595,
      "Package": 4596,
      "ears": 4597,
      "Ġappropriate": 4598,
      "Ġfall": 4599,
      "Ġpo": 4600,
      "Ġentire": 4601,
      "VAL": 4602,
      "ka": 4603,
      "Ġcateg": 4604,
      "Ġinternal": 4605,
      "former": 4606,
      "iki": 4607,
      "oment": 4608,
      "light": 4609,
      "orn": 4610,
      "$,": 4611,
      ">();": 4612,
      "iang": 4613,
      "ooth": 4614,
      "Ġwhose": 4615,
      "iation": 4616,
      "Ġgradient": 4617,
      "ĠCopy": 4618,
      "``,": 4619,
      "poke": 4620,
      "caten": 4621,
      "CK": 4622,
      "Ġmodules": 4623,
      "meta": 4624,
      "convert": 4625,
      "Inner": 4626,
      "grad": 4627,
      "ĠREM": 4628,
      "Types": 4629,
      "aring": 4630,
      "dest": 4631,
      "Ġcontents": 4632,
      "Ġsampling": 4633,
      "irtual": 4634,
      "tmp": 4635,
      "Rel": 4636,
      "tw": 4637,
      "year": 4638,
      "Ġ''": 4639,
      "dot": 4640,
      "Ġunicode": 4641,
      "OVED": 4642,
      "Ġcategory": 4643,
      "Ġroom": 4644,
      "force": 4645,
      "ided": 4646,
      "Ġlik": 4647,
      "Ġmodified": 4648,
      "ha": 4649,
      "channel": 4650,
      "New": 4651,
      "uation": 4652,
      "anced": 4653,
      "ĠLet": 4654,
      "Ġintegr": 4655,
      "Ġbuilt": 4656,
      "Ġpract": 4657,
      "di": 4658,
      "ĠSe": 4659,
      "Ġadding": 4660,
      "chan": 4661,
      "ands": 4662,
      "ookie": 4663,
      "ĠTensorFlow": 4664,
      "ĠCms": 4665,
      "Ġchalleng": 4666,
      "Web": 4667,
      "Sim": 4668,
      "chmark": 4669,
      "Ġfar": 4670,
      "dep": 4671,
      "gu": 4672,
      "mag": 4673,
      "endar": 4674,
      "Ġmeta": 4675,
      "Descri": 4676,
      "Ġsummary": 4677,
      "sequ": 4678,
      "ensive": 4679,
      "lap": 4680,
      "Ġprec": 4681,
      "Ġsugg": 4682,
      "ĠCON": 4683,
      "(\\": 4684,
      "inv": 4685,
      "Ġpermissions": 4686,
      "startswith": 4687,
      "imes": 4688,
      "Row": 4689,
      ")[": 4690,
      "Ġfinally": 4691,
      "Ġthought": 4692,
      "optional": 4693,
      "2026": 4694,
      "Ġsql": 4695,
      "record": 4696,
      "numbers": 4697,
      "ifiers": 4698,
      "/{": 4699,
      "herefore": 4700,
      "SEC": 4701,
      "ĠTypeError": 4702,
      "atrix": 4703,
      "ĠREMOVED": 4704,
      "weight": 4705,
      "ansport": 4706,
      "Ġnovel": 4707,
      "Ed": 4708,
      "Ġment": 4709,
      "bind": 4710,
      "NE": 4711,
      "adius": 4712,
      "poch": 4713,
      "Ag": 4714,
      "Ġsix": 4715,
      "oh": 4716,
      "Ġhasattr": 4717,
      "une": 4718,
      "och": 4719,
      "Ġ\".": 4720,
      "normal": 4721,
      "\"],": 4722,
      "Ġarbitrary": 4723,
      "Ġrecon": 4724,
      "Ġaws": 4725,
      "Ġcontrast": 4726,
      "ium": 4727,
      "Ġimpact": 4728,
      "ĠSeverity": 4729,
      "commit": 4730,
      "Ġiterate": 4731,
      "('/": 4732,
      "ropy": 4733,
      "KEY": 4734,
      "Ġatom": 4735,
      "_{": 4736,
      "chain": 4737,
      "Ġmath": 4738,
      "ĠMore": 4739,
      "ĠOne": 4740,
      "Ġsolve": 4741,
      "Ġproxy": 4742,
      "Ġexplicit": 4743,
      "enk": 4744,
      "Ġjoin": 4745,
      "Ġpick": 4746,
      "duces": 4747,
      "Ġincludes": 4748,
      "Work": 4749,
      "Container": 4750,
      "Ġreview": 4751,
      "Ð°": 4752,
      "Ġproper": 4753,
      "hens": 4754,
      "ats": 4755,
      "Ġwon": 4756,
      "Sup": 4757,
      "Ġspecial": 4758,
      "Ġrole": 4759,
      "MM": 4760,
      "Ġindividual": 4761,
      "Ġ2018": 4762,
      "RAN": 4763,
      "Ġamong": 4764,
      "Ġignore": 4765,
      "Fl": 4766,
      "UE": 4767,
      "rew": 4768,
      "Ġexc": 4769,
      "Ġlarger": 4770,
      "ĠFirst": 4771,
      "Ġcomparison": 4772,
      "ĠInput": 4773,
      "Ġaddition": 4774,
      "Ġmakes": 4775,
      "################################": 4776,
      "cluster": 4777,
      "contains": 4778,
      "ountry": 4779,
      "Ġmarshall": 4780,
      "look": 4781,
      "gs": 4782,
      "Ġmock": 4783,
      "Ġuseful": 4784,
      "Ġcause": 4785,
      "igrations": 4786,
      "Ġ32": 4787,
      "Helper": 4788,
      "Ġsaw": 4789,
      "Listener": 4790,
      "rupt": 4791,
      ",'": 4792,
      "elines": 4793,
      "Api": 4794,
      "dtype": 4795,
      "extract": 4796,
      "Ġincluded": 4797,
      "ĠOF": 4798,
      "columns": 4799,
      "proxy": 4800,
      "Label": 4801,
      "Failed": 4802,
      "ĠShe": 4803,
      "Ġoutper": 4804,
      "Ġflat": 4805,
      "ĠDataFrame": 4806,
      "Act": 4807,
      "product": 4808,
      ":`~": 4809,
      "Sp": 4810,
      "Ġlambda": 4811,
      "aining": 4812,
      "Ġiterates": 4813,
      "-----": 4814,
      "DO": 4815,
      "olved": 4816,
      "Ġtuples": 4817,
      "icate": 4818,
      "Ġunits": 4819,
      "alpha": 4820,
      "ĠBe": 4821,
      "git": 4822,
      "Ġworking": 4823,
      "ART": 4824,
      "salt": 4825,
      "Ġsimply": 4826,
      "else": 4827,
      "Ġcredentials": 4828,
      "Ġpartition": 4829,
      "Ġobjective": 4830,
      "ipe": 4831,
      "Ġer": 4832,
      "Ġassign": 4833,
      "Ġ50": 4834,
      "Ġeyes": 4835,
      "ĠSub": 4836,
      "Ġzip": 4837,
      "Target": 4838,
      "oices": 4839,
      "Ġmonth": 4840,
      "Ġdays": 4841,
      "Async": 4842,
      "SL": 4843,
      "wd": 4844,
      "Child": 4845,
      "uler": 4846,
      "term": 4847,
      "arnings": 4848,
      "256": 4849,
      "ĠTODO": 4850,
      "transform": 4851,
      "Widget": 4852,
      "fill": 4853,
      "Ġquestions": 4854,
      "Ġsil": 4855,
      "Ġbig": 4856,
      "ounds": 4857,
      "Ġgetattr": 4858,
      "pair": 4859,
      "Direct": 4860,
      "Ġinterest": 4861,
      "auss": 4862,
      "ming": 4863,
      "Match": 4864,
      "ĠSection": 4865,
      "Ġprofile": 4866,
      "allow": 4867,
      "tic": 4868,
      "ctx": 4869,
      "ĠMaven": 4870,
      "ady": 4871,
      "Ġrecomm": 4872,
      "ĠĠĠĠĠĠĠĠĠĠĠĠĠĠĠĠĠĠĠĠĠĠĠĠĠĠĠĠĠ": 4873,
      "Ob": 4874,
      "gorithms": 4875,
      "Ġfetch": 4876,
      "atial": 4877,
      "Ġinside": 4878,
      "SV": 4879,
      "Ġplay": 4880,
      "Off": 4881,
      "Ġexpect": 4882,
      "Ġrepe": 4883,
      "ĠLog": 4884,
      "loads": 4885,
      "Definition": 4886,
      "Max": 4887,
      "ĠPath": 4888,
      "Ġentries": 4889,
      "udo": 4890,
      "window": 4891,
      "Ġimplementing": 4892,
      "Ġrecogn": 4893,
      "','": 4894,
      "Ġtimestamp": 4895,
      "clus": 4896,
      "ii": 4897,
      "Ġobtained": 4898,
      "ado": 4899,
      "Ġlooking": 4900,
      "Writer": 4901,
      "ded": 4902,
      "Auth": 4903,
      "report": 4904,
      "ĠWork": 4905,
      "Ġstorage": 4906,
      "Ġyear": 4907,
      "Ġ2022": 4908,
      "Ġarchitecture": 4909,
      "astic": 4910,
      "ifact": 4911,
      "Ġedges": 4912,
      "Ġinference": 4913,
      "Ġwritten": 4914,
      "Ġcounter": 4915,
      "scal": 4916,
      "che": 4917,
      "Ġscene": 4918,
      "Ġlatent": 4919,
      "Local": 4920,
      "security": 4921,
      "GER": 4922,
      "Ġkernel": 4923,
      "ĠDis": 4924,
      "Ġaggreg": 4925,
      "Ġ\"%": 4926,
      "Ġactions": 4927,
      "ĠEm": 4928,
      "tribution": 4929,
      "olt": 4930,
      "ĠSince": 4931,
      "ĠArrayList": 4932,
      "Ġsig": 4933,
      "Ġconstant": 4934,
      "ek": 4935,
      "Ġip": 4936,
      "edia": 4937,
      "Ġmaster": 4938,
      "ĠGNU": 4939,
      "relation": 4940,
      "Ð¸": 4941,
      "Ġapproaches": 4942,
      "profile": 4943,
      "ĠTherefore": 4944,
      "Ġrequirements": 4945,
      "zone": 4946,
      "Graph": 4947,
      ">.": 4948,
      "RF": 4949,
      "ina": 4950,
      "erson": 4951,
      "rowser": 4952,
      "insert": 4953,
      "Hand": 4954,
      "isto": 4955,
      "Ġdiscuss": 4956,
      "oy": 4957,
      "Open": 4958,
      "Ġoccur": 4959,
      "ĠLe": 4960,
      "Ġtesting": 4961,
      "Ġlock": 4962,
      "ugins": 4963,
      "ĠAr": 4964,
      "ourn": 4965,
      "apter": 4966,
      "Ġauto": 4967,
      "Ġperforms": 4968,
      "CA": 4969,
      "Ġ[],": 4970,
      "Ġactive": 4971,
      "raft": 4972,
      "Ġprogress": 4973,
      "Provider": 4974,
      "iness": 4975,
      "thers": 4976,
      "static": 4977,
      "Ġsquare": 4978,
      "cut": 4979,
      "Ġneighb": 4980,
      "ä»": 4981,
      "metric": 4982,
      "OS": 4983,
      "Bytes": 4984,
      "UB": 4985,
      "etion": 4986,
      "derr": 4987,
      "Ġmaps": 4988,
      "Ar": 4989,
      "ĠIs": 4990,
      "des": 4991,
      "elt": 4992,
      "Parse": 4993,
      "adding": 4994,
      "ĠConfig": 4995,
      ">(": 4996,
      "lint": 4997,
      "Ġbi": 4998,
      "ĠHttp": 4999,
      "oto": 5000,
      "PER": 5001,
      "spect": 5002,
      "cos": 5003,
      "Ġdebug": 5004,
      "Ġconcept": 5005,
      "uan": 5006,
      "scription": 5007,
      "FT": 5008,
      "Ġtransaction": 5009,
      "Ġcursor": 5010,
      "Ġ'-": 5011,
      "Implement": 5012,
      "ened": 5013,
      "Ġverify": 5014,
      "Properties": 5015,
      "Ġstrategy": 5016,
      "help": 5017,
      "Ġaim": 5018,
      "iles": 5019,
      "select": 5020,
      "ORT": 5021,
      "strings": 5022,
      "Ġepoch": 5023,
      "Ġhome": 5024,
      "Ġimportant": 5025,
      "ollow": 5026,
      "Ġrather": 5027,
      "Ġabsolute": 5028,
      "ĠCopyright": 5029,
      "Do": 5030,
      "platform": 5031,
      "Pool": 5032,
      "learn": 5033,
      "Ġadopt": 5034,
      "acc": 5035,
      "Ġpixel": 5036,
      "clear": 5037,
      "Ġdbl": 5038,
      "2018": 5039,
      "iform": 5040,
      "Project": 5041,
      "Ġiteration": 5042,
      "Ġlife": 5043,
      "Ġcoeff": 5044,
      "NotFound": 5045,
      "Ġmaking": 5046,
      "Ġincor": 5047,
      "ndarray": 5048,
      "Mode": 5049,
      "Ġhaving": 5050,
      "icle": 5051,
      "]['": 5052,
      "exc": 5053,
      "classes": 5054,
      "td": 5055,
      "Load": 5056,
      "attribute": 5057,
      "Ġrelation": 5058,
      "ĠInteger": 5059,
      "SO": 5060,
      "Ġnested": 5061,
      "acity": 5062,
      ":**": 5063,
      "lang": 5064,
      "amed": 5065,
      "Ġscope": 5066,
      "Ġresearch": 5067,
      "utor": 5068,
      "\";": 5069,
      ".)": 5070,
      "Ġstates": 5071,
      "Ġdestination": 5072,
      "Part": 5073,
      "ĠIter": 5074,
      "Ġcalculated": 5075,
      "plicate": 5076,
      "Sign": 5077,
      "Ġtook": 5078,
      "ynchron": 5079,
      "Ġprime": 5080,
      "Ġcompre": 5081,
      "hest": 5082,
      "Ġtrigger": 5083,
      "ued": 5084,
      "Ġsatisf": 5085,
      "GB": 5086,
      "asing": 5087,
      "iment": 5088,
      "Ã©": 5089,
      "ĠAfter": 5090,
      "ĠRaises": 5091,
      "Ġidx": 5092,
      "Values": 5093,
      "Ġverbose": 5094,
      "Ġspeed": 5095,
      "ASS": 5096,
      "Ġbuilder": 5097,
      "ĠDE": 5098,
      "POST": 5099,
      ">`": 5100,
      "ulated": 5101,
      "umps": 5102,
      "Ġpriv": 5103,
      "Ġappend": 5104,
      "seg": 5105,
      "setup": 5106,
      "ÑĤ": 5107,
      "Ġfast": 5108,
      "ĠRef": 5109,
      "plotlib": 5110,
      "icult": 5111,
      "ĠâĢ": 5112,
      "ĠValid": 5113,
      "ards": 5114,
      "/*": 5115,
      "Ġmove": 5116,
      "Ġsynchron": 5117,
      "ped": 5118,
      "ouch": 5119,
      "Ġchanged": 5120,
      "ustr": 5121,
      "ugment": 5122,
      "ĠMethod": 5123,
      "features": 5124,
      "Ġscheme": 5125,
      "FO": 5126,
      "ital": 5127,
      "Ġmen": 5128,
      "groups": 5129,
      "\"])": 5130,
      "Ġfri": 5131,
      "comment": 5132,
      "ĠNOT": 5133,
      "Ġcoding": 5134,
      "alth": 5135,
      "Ġtmp": 5136,
      "Ġplatform": 5137,
      "Ġgoal": 5138,
      "Url": 5139,
      "sig": 5140,
      "PyPI": 5141,
      "ln": 5142,
      "Ġmoment": 5143,
      "Ġund": 5144,
      "false": 5145,
      "thread": 5146,
      "Ġcandid": 5147,
      "Ġnatural": 5148,
      "using": 5149,
      "cret": 5150,
      "Ġchildren": 5151,
      "\").": 5152,
      "levant": 5153,
      "stit": 5154,
      "ueue": 5155,
      "ĠDe": 5156,
      "Ġbackground": 5157,
      "PC": 5158,
      "SQL": 5159,
      "Ġmut": 5160,
      "RA": 5161,
      "Rule": 5162,
      "TE": 5163,
      "Serial": 5164,
      "login": 5165,
      "yg": 5166,
      "ots": 5167,
      "igration": 5168,
      "ĠModel": 5169,
      "Bean": 5170,
      "errors": 5171,
      "'m": 5172,
      "ĠNode": 5173,
      "////": 5174,
      "Ġxml": 5175,
      "Ġ~": 5176,
      "anges": 5177,
      "Ġage": 5178,
      "Loader": 5179,
      "Ġtheoret": 5180,
      "addr": 5181,
      "Document": 5182,
      "Thread": 5183,
      "Ġsymbol": 5184,
      "NS": 5185,
      "Search": 5186,
      "Ġcreates": 5187,
      "feature": 5188,
      "Script": 5189,
      "Ġcare": 5190,
      "ering": 5191,
      "Meta": 5192,
      "Ġmaterial": 5193,
      "agement": 5194,
      "ERR": 5195,
      "timestamp": 5196,
      "ivalent": 5197,
      "Long": 5198,
      "Min": 5199,
      "Parameters": 5200,
      "la": 5201,
      "Ġenough": 5202,
      "pool": 5203,
      "Ġplan": 5204,
      "Box": 5205,
      "ĠWIT": 5206,
      "Ġimplemented": 5207,
      "PAT": 5208,
      "Ġoften": 5209,
      "Ġinterpre": 5210,
      "OK": 5211,
      "Ġextracted": 5212,
      "One": 5213,
      "aves": 5214,
      "itionally": 5215,
      "Options": 5216,
      "ariable": 5217,
      "ĠRuntime": 5218,
      "iqu": 5219,
      "iet": 5220,
      "zz": 5221,
      "extend": 5222,
      "Host": 5223,
      "iveness": 5224,
      "win": 5225,
      "Ġsuggest": 5226,
      "Non": 5227,
      "Ġmechan": 5228,
      "There": 5229,
      "QU": 5230,
      "Ġreq": 5231,
      "Ġdimensions": 5232,
      "herit": 5233,
      "ĠCO": 5234,
      "Ġselection": 5235,
      "Ġir": 5236,
      "ivers": 5237,
      "protected": 5238,
      "ĠWAR": 5239,
      "Ġassume": 5240,
      "Ġpreserv": 5241,
      "custom": 5242,
      "tags": 5243,
      "ingu": 5244,
      "Ġends": 5245,
      "ĠTime": 5246,
      "Ġconduct": 5247,
      "ĠNet": 5248,
      "Serv": 5249,
      "Ġyears": 5250,
      "Stack": 5251,
      "Ġupload": 5252,
      "world": 5253,
      "Ġrelationship": 5254,
      "energy": 5255,
      "Ġplugin": 5256,
      "Ġoutputs": 5257,
      "Yes": 5258,
      "idge": 5259,
      "Ġcomprehens": 5260,
      "ĠService": 5261,
      "Ġyoung": 5262,
      "riev": 5263,
      "Ġalgorithms": 5264,
      "Ġvectors": 5265,
      "lers": 5266,
      "ipped": 5267,
      "Ġcut": 5268,
      "eter": 5269,
      "outer": 5270,
      "Ġbranch": 5271,
      "Ġlonger": 5272,
      "Back": 5273,
      "you": 5274,
      "Ġremaining": 5275,
      "arge": 5276,
      "aced": 5277,
      "multi": 5278,
      "Ġ13": 5279,
      "Ġactivity": 5280,
      "Ġla": 5281,
      "Ġtaken": 5282,
      "Ġdemonstrate": 5283,
      "ictionary": 5284,
      "gt": 5285,
      "ocker": 5286,
      "raises": 5287,
      "åĪ": 5288,
      "Ġauthentication": 5289,
      "Logger": 5290,
      "PS": 5291,
      "Ġhalf": 5292,
      "Ġconvolution": 5293,
      "Ġ'__": 5294,
      "Ġawait": 5295,
      "SH": 5296,
      "Ġframes": 5297,
      "ĠReg": 5298,
      "Ġrepresented": 5299,
      "ABLE": 5300,
      "Ġanything": 5301,
      "ĠRE": 5302,
      "sets": 5303,
      "aussian": 5304,
      "Ġupdates": 5305,
      "icon": 5306,
      "ALL": 5307,
      "safe": 5308,
      "reed": 5309,
      "render": 5310,
      "Ġhidden": 5311,
      "Ġ2017": 5312,
      "(**": 5313,
      "socket": 5314,
      "exts": 5315,
      "Ġgithub": 5316,
      "Ġblocks": 5317,
      "Ġsemantic": 5318,
      "henticated": 5319,
      "Ġrecent": 5320,
      "Ġstage": 5321,
      "Ġtrace": 5322,
      "Ġemploy": 5323,
      "Ret": 5324,
      "Ġraised": 5325,
      "Ġ'{": 5326,
      "route": 5327,
      "lim": 5328,
      "Ġchoice": 5329,
      "Ġannotation": 5330,
      "VI": 5331,
      "Ġones": 5332,
      "enses": 5333,
      "Ġhtml": 5334,
      "Module": 5335,
      "unique": 5336,
      "CP": 5337,
      "rand": 5338,
      "Ġ1000": 5339,
      "hook": 5340,
      "though": 5341,
      "Ġsb": 5342,
      "DEFAULT": 5343,
      "anel": 5344,
      "Ġlearned": 5345,
      "faces": 5346,
      "Ġtre": 5347,
      "plicit": 5348,
      "anguages": 5349,
      "Ġsocket": 5350,
      "Ġpk": 5351,
      "jection": 5352,
      "ĠInvalid": 5353,
      "Spec": 5354,
      "ĠNumber": 5355,
      "Comp": 5356,
      "ĠANY": 5357,
      "Ġsegmentation": 5358,
      "getMessage": 5359,
      "ĠMulti": 5360,
      "logging": 5361,
      "Unit": 5362,
      "Ġsite": 5363,
      "roid": 5364,
      "traction": 5365,
      "2017": 5366,
      "DS": 5367,
      "pars": 5368,
      "enkins": 5369,
      "VE": 5370,
      "display": 5371,
      "Ġcat": 5372,
      "sorted": 5373,
      "Ġbenchmark": 5374,
      "IST": 5375,
      "properties": 5376,
      "interval": 5377,
      "added": 5378,
      "Ġcourse": 5379,
      "unch": 5380,
      "internal": 5381,
      "ycle": 5382,
      "interface": 5383,
      "strict": 5384,
      "UM": 5385,
      "ĠRequest": 5386,
      "Debug": 5387,
      "Ġpredictions": 5388,
      "Ġcalculates": 5389,
      "Ġwhy": 5390,
      "Ġlooked": 5391,
      "TestCase": 5392,
      "real": 5393,
      "future": 5394,
      "loss": 5395,
      "Constants": 5396,
      "Ġdrop": 5397,
      "dule": 5398,
      "Ġdictionaries": 5399,
      "Ġskip": 5400,
      "Ġroute": 5401,
      "Ġ\"\\": 5402,
      "Ġpose": 5403,
      "Ġmind": 5404,
      "egin": 5405,
      "Ġencoded": 5406,
      "wait": 5407,
      "paths": 5408,
      "nn": 5409,
      "apache": 5410,
      "Ġnil": 5411,
      "trace": 5412,
      "urb": 5413,
      "Settings": 5414,
      "Ġappear": 5415,
      "Ġfails": 5416,
      "ana": 5417,
      "Order": 5418,
      "atively": 5419,
      ")/": 5420,
      "]):": 5421,
      "writ": 5422,
      "pg": 5423,
      "track": 5424,
      "Ġthings": 5425,
      "Ġvolume": 5426,
      "ĠNe": 5427,
      "Ġdefaults": 5428,
      "Params": 5429,
      "collection": 5430,
      "Ġsequences": 5431,
      "Ext": 5432,
      "Ġcurrently": 5433,
      "mock": 5434,
      "DA": 5435,
      "fetch": 5436,
      "Ġconcaten": 5437,
      "Ġheard": 5438,
      "INT": 5439,
      "Ġminim": 5440,
      "Ġdialog": 5441,
      "Ġwall": 5442,
      "Ġposs": 5443,
      "lar": 5444,
      "ĠAny": 5445,
      "}}": 5446,
      "tool": 5447,
      "Ġindicates": 5448,
      "Port": 5449,
      "Ġformatted": 5450,
      "Ġmount": 5451,
      "ierarch": 5452,
      ".\");": 5453,
      "Ġsit": 5454,
      "Ġnd": 5455,
      "ĠExamples": 5456,
      "Ġprocesses": 5457,
      "Su": 5458,
      "Ġ);": 5459,
      "Ġctx": 5460,
      "Ġrequested": 5461,
      "Ġswitch": 5462,
      "ama": 5463,
      "quired": 5464,
      "ĠDec": 5465,
      "ĠBase": 5466,
      "Ġresolution": 5467,
      "Ġfolder": 5468,
      "DataFrame": 5469,
      "ANG": 5470,
      "Ġbaseline": 5471,
      "Metadata": 5472,
      ";\\": 5473,
      "depend": 5474,
      "Byte": 5475,
      "Ġcenter": 5476,
      "buf": 5477,
      "fin": 5478,
      "ained": 5479,
      "which": 5480,
      "Hub": 5481,
      "Ġletter": 5482,
      "Ġobserved": 5483,
      "riteria": 5484,
      "HTTP": 5485,
      "oted": 5486,
      "ĠĠĠĠĠĠĠĠĠĠĠĠĠĠĠĠĠĠĠĠĠĠĠĠĠĠĠĠĠĠ": 5487,
      "lass": 5488,
      "Ġexternal": 5489,
      "ĠWeb": 5490,
      "late": 5491,
      "ining": 5492,
      "abc": 5493,
      "Ġcomment": 5494,
      "overy": 5495,
      "ointer": 5496,
      "atter": 5497,
      "prov": 5498,
      "samples": 5499,
      "}'.": 5500,
      "abilities": 5501,
      "Build": 5502,
      "So": 5503,
      "specific": 5504,
      "agon": 5505,
      "Ġdesc": 5506,
      "Ġwrong": 5507,
      "Ġprocessed": 5508,
      "Ġclosed": 5509,
      "more": 5510,
      "times": 5511,
      "Ġcorrectly": 5512,
      "Ġmar": 5513,
      "Ġintroduce": 5514,
      "ĠWhile": 5515,
      "warning": 5516,
      "ube": 5517,
      "Application": 5518,
      "Ġconverted": 5519,
      "Finally": 5520,
      "apes": 5521,
      "Ġactivation": 5522,
      "Ġdescribed": 5523,
      "Ġdifficult": 5524,
      "dt": 5525,
      "~~": 5526,
      "ĠFound": 5527,
      "upper": 5528,
      "Ġaltern": 5529,
      "Ġachieves": 5530,
      "eh": 5531,
      "Ġfilters": 5532,
      "Ġoptimal": 5533,
      "usters": 5534,
      "azz": 5535,
      "Ġparallel": 5536,
      "Reference": 5537,
      "neg": 5538,
      "round": 5539,
      "unct": 5540,
      "Ġarrays": 5541,
      "UID": 5542,
      "fg": 5543,
      "uuid": 5544,
      "Ġreading": 5545,
      "Ġutf": 5546,
      "ĠSpecific": 5547,
      "Ġrandomly": 5548,
      "ĠApache": 5549,
      "elements": 5550,
      "policy": 5551,
      "gence": 5552,
      "ĠĠĠĠĠĠĠĠĠĠĠĠĊ": 5553,
      "crete": 5554,
      "changed": 5555,
      ":%": 5556,
      "isEmpty": 5557,
      "etes": 5558,
      "kit": 5559,
      "ously": 5560,
      "ĠĠĠĠĠĠĠĠĠĠĠĠĠĠĠĠĠĠĠĠĠĠĠĠĠĠĠĠĠĠĠĠĠĠĠĠĠĠĠ": 5561,
      "Liberty": 5562,
      "Ġredirect": 5563,
      "Ġinitialize": 5564,
      "Ġ'_": 5565,
      "Proxy": 5566,
      "numpy": 5567,
      "Position": 5568,
      "ACK": 5569,
      "Execution": 5570,
      "Out": 5571,
      "compile": 5572,
      "ĠCall": 5573,
      "ĠInter": 5574,
      "yd": 5575,
      "END": 5576,
      "ĠLo": 5577,
      "ĠLu": 5578,
      "binary": 5579,
      "ping": 5580,
      "è¯": 5581,
      "ATA": 5582,
      "Ġblack": 5583,
      "ĠPY": 5584,
      "clean": 5585,
      "iler": 5586,
      "Ġadmin": 5587,
      "ĠVersion": 5588,
      "prop": 5589,
      "Ġsym": 5590,
      "cap": 5591,
      "itable": 5592,
      "Ġnorm": 5593,
      "Ġidentified": 5594,
      "ĠGit": 5595,
      "Ġhope": 5596,
      "Ġgame": 5597,
      "irection": 5598,
      "raise": 5599,
      "vector": 5600,
      "Ġ14": 5601,
      "istribution": 5602,
      "Ġexecuting": 5603,
      "pus": 5604,
      "Ġsecret": 5605,
      "Ġtrav": 5606,
      "Ġexceptions": 5607,
      "Ġsuccessful": 5608,
      "inct": 5609,
      "short": 5610,
      "Ġbasic": 5611,
      "Ġrect": 5612,
      "ocation": 5613,
      "liberty": 5614,
      "ario": 5615,
      "eo": 5616,
      "arily": 5617,
      "ĠInitial": 5618,
      "........": 5619,
      "throw": 5620,
      "ayout": 5621,
      "eature": 5622,
      "Note": 5623,
      "eft": 5624,
      "ĠGiven": 5625,
      "Ġfollowed": 5626,
      "category": 5627,
      "uce": 5628,
      "icates": 5629,
      "Ġthing": 5630,
      "Ġjoint": 5631,
      "Ġsmaller": 5632,
      "Policy": 5633,
      "'ve": 5634,
      "ams": 5635,
      "123": 5636,
      "sche": 5637,
      "icks": 5638,
      "Ġmember": 5639,
      "while": 5640,
      "Ġprice": 5641,
      "flat": 5642,
      "Ġpassing": 5643,
      "Ġtrying": 5644,
      "Operation": 5645,
      "Ġdigits": 5646,
      "stdout": 5647,
      "children": 5648,
      "Ġaugment": 5649,
      "roy": 5650,
      "Ġshared": 5651,
      "Ġequation": 5652,
      "Find": 5653,
      "Ġbin": 5654,
      "opts": 5655,
      "ĠAb": 5656,
      "Ġlogic": 5657,
      "Ġmerge": 5658,
      "agent": 5659,
      "ools": 5660,
      "Ġleading": 5661,
      "ĉĠĠĠ": 5662,
      "Ġfive": 5663,
      "CM": 5664,
      "Ġfig": 5665,
      "ĠThat": 5666,
      "Multi": 5667,
      "fail": 5668,
      "!\"": 5669,
      "Root": 5670,
      "edge": 5671,
      "Ġpermission": 5672,
      "Ġadjust": 5673,
      "Tracing": 5674,
      "uit": 5675,
      "}\\": 5676,
      "Channel": 5677,
      "Ġconnected": 5678,
      "ellow": 5679,
      "acter": 5680,
      "Ġpipeline": 5681,
      "ĠDat": 5682,
      "ocab": 5683,
      "layers": 5684,
      "ĠMy": 5685,
      "'][": 5686,
      "ĠOpenLiberty": 5687,
      "Ġeffective": 5688,
      "Ġturned": 5689,
      "****************": 5690,
      "onac": 5691,
      "Ġ25": 5692,
      "Ġability": 5693,
      "Template": 5694,
      "PRE": 5695,
      "require": 5696,
      "Ġlimited": 5697,
      "Ġguid": 5698,
      "Ġpredicted": 5699,
      "Ġempir": 5700,
      "ĠRep": 5701,
      "comes": 5702,
      "First": 5703,
      "Ġsimilarity": 5704,
      "After": 5705,
      "related": 5706,
      "Vis": 5707,
      "Ġord": 5708,
      "IONS": 5709,
      "Range": 5710,
      "onacci": 5711,
      "mail": 5712,
      "AGE": 5713,
      "nums": 5714,
      "Sy": 5715,
      "hex": 5716,
      "JSON": 5717,
      "was": 5718,
      "Ġinner": 5719,
      "åĲ": 5720,
      "Ġtra": 5721,
      "ws": 5722,
      "Ġrelevant": 5723,
      "æľ": 5724,
      "Ġengine": 5725,
      "Mon": 5726,
      "warn": 5727,
      "Ġpixels": 5728,
      "Ġwalk": 5729,
      "CS": 5730,
      "Json": 5731,
      "ief": 5732,
      "ĠSc": 5733,
      "ĠWARRAN": 5734,
      "mac": 5735,
      "ven": 5736,
      "parts": 5737,
      "Ġsurface": 5738,
      "Pattern": 5739,
      "norm": 5740,
      "Ġreduce": 5741,
      "price": 5742,
      "æĸ": 5743,
      ">,": 5744,
      "]),": 5745,
      "ĠDate": 5746,
      "apply": 5747,
      "Red": 5748,
      "eas": 5749,
      "ĠRed": 5750,
      "depth": 5751,
      "UG": 5752,
      "Ġdecimal": 5753,
      "Ġ\\\\": 5754,
      "folder": 5755,
      "Then": 5756,
      "uk": 5757,
      "Ġsystems": 5758,
      "repo": 5759,
      "supported": 5760,
      "Ġiterable": 5761,
      "NOT": 5762,
      "Ġbucket": 5763,
      "ĠSp": 5764,
      "FOR": 5765,
      "iate": 5766,
      "ains": 5767,
      "free": 5768,
      "Ġtool": 5769,
      "Ġestimation": 5770,
      "ĠSoftware": 5771,
      "Ġcategories": 5772,
      "application": 5773,
      "even": 5774,
      "game": 5775,
      "ĠJava": 5776,
      "substring": 5777,
      "-+": 5778,
      "Ġbus": 5779,
      "ĠImp": 5780,
      "]+": 5781,
      "loop": 5782,
      "ĠÎ": 5783,
      "Ġquick": 5784,
      "Ġcomputed": 5785,
      "Ġrout": 5786,
      "Ġratio": 5787,
      "ĠOb": 5788,
      "processing": 5789,
      "Perm": 5790,
      "ersed": 5791,
      "plan": 5792,
      "__)": 5793,
      "ĠAdditionally": 5794,
      "Ġmotion": 5795,
      "Account": 5796,
      "eak": 5797,
      "dapt": 5798,
      "Ġ):": 5799,
      "Ġcore": 5800,
      "chunk": 5801,
      "getValue": 5802,
      "Ġqueries": 5803,
      "Ġconstraints": 5804,
      "variable": 5805,
      "Ġ60": 5806,
      "Ġdecorator": 5807,
      "wrap": 5808,
      "Ġ;": 5809,
      "Ġmis": 5810,
      "Ġstre": 5811,
      "Ð½": 5812,
      "enter": 5813,
      "rypted": 5814,
      "attributes": 5815,
      "Ġregard": 5816,
      "document": 5817,
      "zeros": 5818,
      "LA": 5819,
      "Ġspaces": 5820,
      "Ġexpress": 5821,
      "Abstract": 5822,
      "Ġtalk": 5823,
      "after": 5824,
      "Ġfamily": 5825,
      "imin": 5826,
      "jac": 5827,
      "Ġche": 5828,
      "loader": 5829,
      "PUT": 5830,
      "Window": 5831,
      "indices": 5832,
      "âĪĩ": 5833,
      "(\"\\": 5834,
      "ACE": 5835,
      "Ġhouse": 5836,
      "Ġcapture": 5837,
      "helper": 5838,
      "Ġlimitations": 5839,
      "region": 5840,
      "Ġpret": 5841,
      "Ġreplied": 5842,
      "ĠST": 5843,
      "Delete": 5844,
      "double": 5845,
      "Ġclassifier": 5846,
      "Ġproblems": 5847,
      "Ġrecords": 5848,
      "_,": 5849,
      "soft": 5850,
      "Ġboundary": 5851,
      "Ġproduce": 5852,
      "ruro": 5853,
      "analysis": 5854,
      "TracingEnabled": 5855,
      "Down": 5856,
      "zero": 5857,
      "ike": 5858,
      "Ġdem": 5859,
      "fast": 5860,
      "Ġenabled": 5861,
      "Ġur": 5862,
      "Ġreader": 5863,
      "Ġwriter": 5864,
      "dates": 5865,
      "SD": 5866,
      "zure": 5867,
      "Ġtrust": 5868,
      "Ġmaintain": 5869,
      "<?>": 5870,
      "Queue": 5871,
      "isAny": 5872,
      "eting": 5873,
      "ĠSpecifically": 5874,
      "Ġtranslation": 5875,
      "framework": 5876,
      "Ġsoon": 5877,
      "azure": 5878,
      "Ġ###": 5879,
      "Ġnight": 5880,
      "ĠAttribute": 5881,
      "Ġsignificantly": 5882,
      "ung": 5883,
      "ĠDjango": 5884,
      "ĠRead": 5885,
      "resources": 5886,
      "role": 5887,
      "iques": 5888,
      "Ġformula": 5889,
      "Ġtemperature": 5890,
      "bs": 5891,
      "Ġcov": 5892,
      "dimension": 5893,
      "isAnyTracingEnabled": 5894,
      "@@": 5895,
      "iding": 5896,
      "oll": 5897,
      "payload": 5898,
      "Ġuri": 5899,
      "Ġequivalent": 5900,
      "Network": 5901,
      "ission": 5902,
      "æķ": 5903,
      "Ġtruth": 5904,
      "complete": 5905,
      "Ġ`[": 5906,
      "Ġdynamic": 5907,
      "reset": 5908,
      "OM": 5909,
      "card": 5910,
      "Ġplease": 5911,
      "ĠHash": 5912,
      "INE": 5913,
      "=\\": 5914,
      "Ġadds": 5915,
      "Ġsoft": 5916,
      "Ġdisable": 5917,
      "Ġfailure": 5918,
      "Pass": 5919,
      "Ġfeel": 5920,
      "Ġapplications": 5921,
      "argv": 5922,
      "widget": 5923,
      "Hash": 5924,
      "iling": 5925,
      "Button": 5926,
      "cade": 5927,
      "Ġconc": 5928,
      "mitted": 5929,
      "olves": 5930,
      "plates": 5931,
      "Ġweak": 5932,
      "Annotation": 5933,
      "Wrapper": 5934,
      "Ġbits": 5935,
      "exceptions": 5936,
      "Ġdensity": 5937,
      "Ġtold": 5938,
      "ĠCode": 5939,
      "URI": 5940,
      "Ġmix": 5941,
      "Ġsparse": 5942,
      "Ġfront": 5943,
      "Ġbind": 5944,
      "Ġbenef": 5945,
      "modules": 5946,
      "Lock": 5947,
      "PAR": 5948,
      "ClientException": 5949,
      "(__": 5950,
      "arial": 5951,
      "Ġinstruction": 5952,
      "Ġothers": 5953,
      "Ġorgan": 5954,
      "Ġspl": 5955,
      "components": 5956,
      "Remove": 5957,
      "Ġ@@": 5958,
      "ANT": 5959,
      "iciency": 5960,
      "Ġliter": 5961,
      "AX": 5962,
      "Ġadvers": 5963,
      "My": 5964,
      "Ġpse": 5965,
      "Ġseed": 5966,
      "Hello": 5967,
      "ĠKeyError": 5968,
      "Internal": 5969,
      "Ġalpha": 5970,
      "Ġhex": 5971,
      "Vector": 5972,
      "ios": 5973,
      "Ġwrapper": 5974,
      "entially": 5975,
      "Ġconsis": 5976,
      "Ġregions": 5977,
      "Directory": 5978,
      "distance": 5979,
      "Mem": 5980,
      "ServiceResponse": 5981,
      "ĠForm": 5982,
      "prev": 5983,
      "Ġbad": 5984,
      "ĠThus": 5985,
      "lst": 5986,
      "Ġgeometry": 5987,
      "ERROR": 5988,
      "Ġpal": 5989,
      "ĠFunction": 5990,
      "ĠGO": 5991,
      "Ġ2016": 5992,
      "recated": 5993,
      "Ġep": 5994,
      "encoding": 5995,
      "Offset": 5996,
      "^{": 5997,
      "Ġthird": 5998,
      "ĠId": 5999,
      "Ġ'*": 6000,
      "users": 6001,
      "Ġexit": 6002,
      "Ġsubprocess": 6003,
      "iled": 6004,
      "Ġunc": 6005,
      "PU": 6006,
      "ects": 6007,
      "('\\": 6008,
      "Ġcompat": 6009,
      "au": 6010,
      "iT": 6011,
      "Ġnor": 6012,
      "ĠICL": 6013,
      "Ġsmooth": 6014,
      "mult": 6015,
      "Ġchoose": 6016,
      "ĠTHE": 6017,
      "Ġhel": 6018,
      "Ġbounds": 6019,
      "ĠMem": 6020,
      "ACT": 6021,
      "=['": 6022,
      "Ġspect": 6023,
      "XML": 6024,
      "rule": 6025,
      "Ġvariant": 6026,
      "ky": 6027,
      "ateway": 6028,
      "ij": 6029,
      "Compl": 6030,
      "expression": 6031,
      ")).": 6032,
      "global": 6033,
      "language": 6034,
      "anit": 6035,
      "Python": 6036,
      "iffer": 6037,
      "Ġpositions": 6038,
      "ĠIS": 6039,
      "Interface": 6040,
      "hesis": 6041,
      "Ġroll": 6042,
      "supervised": 6043,
      "accept": 6044,
      "Ġpercent": 6045,
      "Sequence": 6046,
      "break": 6047,
      "Var": 6048,
      "factor": 6049,
      "attrs": 6050,
      "MT": 6051,
      "istent": 6052,
      "Ġdocumentation": 6053,
      "ASE": 6054,
      "home": 6055,
      "ÑĢ": 6056,
      "aren": 6057,
      "clusive": 6058,
      "blob": 6059,
      "counts": 6060,
      "fact": 6061,
      "Ġlanguages": 6062,
      "hetic": 6063,
      "Ġ-=": 6064,
      "Ġdecoder": 6065,
      "Ġtheoretical": 6066,
      "getC": 6067,
      "Ġangle": 6068,
      "istogram": 6069,
      "Ġcounts": 6070,
      "Ġ',": 6071,
      "-%": 6072,
      "Ġwidget": 6073,
      "]`": 6074,
      "meth": 6075,
      "____": 6076,
      "Ġpropos": 6077,
      "Ġdependency": 6078,
      "Ġspatial": 6079,
      "Color": 6080,
      "Ġcombination": 6081,
      "success": 6082,
      "Ġthrown": 6083,
      "Seg": 6084,
      "reference": 6085,
      "Ġ18": 6086,
      "Ġmanip": 6087,
      "CR": 6088,
      "aped": 6089,
      "izon": 6090,
      "CharField": 6091,
      "images": 6092,
      "Ġtransition": 6093,
      "Schema": 6094,
      "ĠImport": 6095,
      "EXT": 6096,
      "Ð¾Ð": 6097,
      "255": 6098,
      "Conver": 6099,
      "Ġconsists": 6100,
      "Ġestimate": 6101,
      "Ġruns": 6102,
      "linear": 6103,
      "She": 6104,
      "ĠSu": 6105,
      "usr": 6106,
      "ĠAlso": 6107,
      "ĠOnly": 6108,
      "}/": 6109,
      "unicode": 6110,
      "oney": 6111,
      "Ġlev": 6112,
      "Ġbias": 6113,
      "CI": 6114,
      "ãĢ": 6115,
      "Ġten": 6116,
      "storage": 6117,
      "Ġ});": 6118,
      "Ġlookup": 6119,
      "Location": 6120,
      "NT": 6121,
      "Ġhandling": 6122,
      "Ġ19": 6123,
      "Ġimplied": 6124,
      "conv": 6125,
      "ĠCollection": 6126,
      "ĠĠĠĠĠĠĠĠĠĠĠĠĠĠĠĠĠĠĠĠĠĠĠĠĠĠĠĠĠĠĠĠĠ": 6127,
      "month": 6128,
      "Mix": 6129,
      "ĠURI": 6130,
      "ĠDon": 6131,
      "variant": 6132,
      "Ġast": 6133,
      "ĠDB": 6134,
      "flags": 6135,
      "Ġbaselines": 6136,
      "(['": 6137,
      "anz": 6138,
      "ĠPO": 6139,
      "ĠLE": 6140,
      "ĠOS": 6141,
      "Ġenable": 6142,
      "illis": 6143,
      "><": 6144,
      "STR": 6145,
      "Ġoutperforms": 6146,
      "Ġ'--": 6147,
      "Descriptor": 6148,
      "dumps": 6149,
      "illa": 6150,
      "Ġperformed": 6151,
      "Unable": 6152,
      "Ġband": 6153,
      "FILE": 6154,
      "boolean": 6155,
      "Ġinstant": 6156,
      "Ġillustr": 6157,
      "rm": 6158,
      "under": 6159,
      "volume": 6160,
      "ĠOver": 6161,
      "Ġabs": 6162,
      "Ġexpand": 6163,
      "Ġseparate": 6164,
      "Ġtaking": 6165,
      "Ġmiddle": 6166,
      "iful": 6167,
      "Ġ[[": 6168,
      "uy": 6169,
      "irm": 6170,
      "flag": 6171,
      "available": 6172,
      "Ġentities": 6173,
      "begin": 6174,
      "ĠMake": 6175,
      "Inst": 6176,
      "rown": 6177,
      "cursor": 6178,
      "Ġimg": 6179,
      "Ġdivis": 6180,
      "Creates": 6181,
      "database": 6182,
      "TraceComponent": 6183,
      "ĠFoundation": 6184,
      "ARE": 6185,
      "Ġembeddings": 6186,
      "-+-+": 6187,
      "Variable": 6188,
      "ĠFOR": 6189,
      "Ġmeaning": 6190,
      "ares": 6191,
      "rot": 6192,
      "Tim": 6193,
      "}'": 6194,
      "Admin": 6195,
      "fort": 6196,
      "orem": 6197,
      "Ġparsing": 6198,
      "except": 6199,
      "ĠChen": 6200,
      "ĠMan": 6201,
      "Ġclaim": 6202,
      "è¿": 6203,
      "outh": 6204,
      "()));": 6205,
      "Eng": 6206,
      "Given": 6207,
      "Ġdeploy": 6208,
      "vars": 6209,
      "Ġfiltered": 6210,
      "Head": 6211,
      "ĠEq": 6212,
      "Ġoverride": 6213,
      "Ġindicate": 6214,
      "ĠSdk": 6215,
      "cons": 6216,
      "Ġprovider": 6217,
      "release": 6218,
      "Ġindent": 6219,
      "127": 6220,
      "Ġquite": 6221,
      "Ġsimpl": 6222,
      "ĠZhang": 6223,
      "vl": 6224,
      "Ġpast": 6225,
      "Ġcontribution": 6226,
      "Ġ99": 6227,
      "Ġwide": 6228,
      "Ġsubset": 6229,
      "desc": 6230,
      "Ġwater": 6231,
      "component": 6232,
      "Convert": 6233,
      "ĠAND": 6234,
      "Co": 6235,
      "ĠSdkClientException": 6236,
      "Âł": 6237,
      "Ġindepend": 6238,
      "Ġtowards": 6239,
      "Ġcoordinate": 6240,
      ".*": 6241,
      "Core": 6242,
      "Ġprimary": 6243,
      "Ġcomplexity": 6244,
      "ĠMonkey": 6245,
      "dl": 6246,
      "Ġprints": 6247,
      "scope": 6248,
      "Ġreally": 6249,
      "Ġther": 6250,
      "ĠMin": 6251,
      "PATH": 6252,
      "Ġmanager": 6253,
      "Ġsuccessfully": 6254,
      "river": 6255,
      "ĠTem": 6256,
      "0014": 6257,
      "Ġoccurs": 6258,
      "ĠDoc": 6259,
      "Ġtx": 6260,
      "Ġ*/": 6261,
      "Ids": 6262,
      "onds": 6263,
      "Ġrad": 6264,
      "Initial": 6265,
      "Ġdenotes": 6266,
      "Boolean": 6267,
      "Ġfunctionality": 6268,
      "ritical": 6269,
      "Body": 6270,
      "HER": 6271,
      "fect": 6272,
      "ients": 6273,
      "period": 6274,
      "Ġids": 6275,
      "ĠIndex": 6276,
      "Device": 6277,
      "ĠPYSEC": 6278,
      "generator": 6279,
      "Sl": 6280,
      "Ġreach": 6281,
      "Ġfac": 6282,
      "Ġgives": 6283,
      "nan": 6284,
      "Ġenergy": 6285,
      "quad": 6286,
      "rolled": 6287,
      "Ġpay": 6288,
      "ette": 6289,
      "Ġrelease": 6290,
      "Ġradius": 6291,
      "Ġbelong": 6292,
      "istration": 6293,
      "clusion": 6294,
      "CTION": 6295,
      "Ġclick": 6296,
      "ĠText": 6297,
      "inf": 6298,
      "control": 6299,
      "Ġshell": 6300,
      "CD": 6301,
      "plt": 6302,
      "Ġstarts": 6303,
      "MO": 6304,
      "ĠMr": 6305,
      "ircle": 6306,
      "ĠNetwork": 6307,
      "Ġregistered": 6308,
      "Ñģ": 6309,
      "Ġtraject": 6310,
      "Ġcity": 6311,
      "ety": 6312,
      "eval": 6313,
      "Ġqual": 6314,
      "zen": 6315,
      "Ø§": 6316,
      "Ġdot": 6317,
      "Ġsentences": 6318,
      "Ġobserve": 6319,
      "Ġhands": 6320,
      "Ġforms": 6321,
      "ĠBoolean": 6322,
      "Ġcallable": 6323,
      "Ġencode": 6324,
      "Ġvirtual": 6325,
      "Ġdoor": 6326,
      "Ġdecom": 6327,
      "Sets": 6328,
      "Ġbottom": 6329,
      "compute": 6330,
      "forward": 6331,
      "Ġconstructor": 6332,
      "erved": 6333,
      "Ġinterpol": 6334,
      "println": 6335,
      "Ġseemed": 6336,
      "HOUT": 6337,
      "ĠICLR": 6338,
      "Ġduration": 6339,
      "Ġlogin": 6340,
      "Le": 6341,
      "eek": 6342,
      "atic": 6343,
      "Ġsol": 6344,
      "agment": 6345,
      "mo": 6346,
      "}\"": 6347,
      "Ġissues": 6348,
      "_.": 6349,
      "onical": 6350,
      "ĠAcc": 6351,
      "ĠET": 6352,
      "Ġprevent": 6353,
      "itter": 6354,
      "Ġdiver": 6355,
      "00001": 6356,
      "Ġvertex": 6357,
      "erences": 6358,
      "asons": 6359,
      "Ġpartial": 6360,
      "Ġaddresses": 6361,
      "Ġrobustness": 6362,
      "atom": 6363,
      "Ġprot": 6364,
      "ipy": 6365,
      "0011": 6366,
      "Ġheart": 6367,
      "seconds": 6368,
      "elta": 6369,
      "Ġprinted": 6370,
      "driver": 6371,
      "Ġignored": 6372,
      "icies": 6373,
      "Ġ40": 6374,
      "0002": 6375,
      "semble": 6376,
      "Ġmechanism": 6377,
      "Ġsal": 6378,
      "ĠĠĠĠĠĠĠĠĠĠĠĠĠĠĠĠĠĠĠĠĠĠĠĠĠĠĠĠĠĠĠĠĠĠĠĠĠĠĠĠĠĠĠĠĠĠĠĠĠĠĠĠĠĠĠĠĠĠĠĠĠĠĠĠ": 6379,
      "Ġdelta": 6380,
      "ĠLiu": 6381,
      "igate": 6382,
      "vals": 6383,
      "wiki": 6384,
      "Ġmid": 6385,
      "Ġsummar": 6386,
      "si": 6387,
      "isk": 6388,
      "adow": 6389,
      "Ġhref": 6390,
      "Ġoccurren": 6391,
      "download": 6392,
      "omin": 6393,
      "ĠRel": 6394,
      "Ġtopic": 6395,
      "pu": 6396,
      "contrib": 6397,
      "Ġleg": 6398,
      "Ġidea": 6399,
      "undred": 6400,
      "ĠResource": 6401,
      "Ġiterator": 6402,
      ")+": 6403,
      "Ġhistory": 6404,
      "Ġmatplotlib": 6405,
      "Optional": 6406,
      "Tensor": 6407,
      "Ġreset": 6408,
      "Ġtables": 6409,
      "Ġtechniques": 6410,
      "Ġnearly": 6411,
      "rh": 6412,
      "Ġå": 6413,
      "inner": 6414,
      "Ġsaved": 6415,
      "signal": 6416,
      "Ġ24": 6417,
      "rypto": 6418,
      "tuning": 6419,
      "yue": 6420,
      "Ġhours": 6421,
      "Ġfather": 6422,
      "Ġgap": 6423,
      "Only": 6424,
      "Ġ64": 6425,
      "Ġ::": 6426,
      "predict": 6427,
      "Ġconfigured": 6428,
      "=%": 6429,
      "Ġndarray": 6430,
      "eps": 6431,
      "Ġphase": 6432,
      "pkg": 6433,
      "Layout": 6434,
      "Ġ\")": 6435,
      "Ġalignment": 6436,
      "Ġhowever": 6437,
      "ĠâĢĺ": 6438,
      "Ġexper": 6439,
      "events": 6440,
      "Ġreturning": 6441,
      "Ġminutes": 6442,
      "cm": 6443,
      "Ġpain": 6444,
      "Callback": 6445,
      "LL": 6446,
      "environ": 6447,
      "dden": 6448,
      "Ġdownstream": 6449,
      "Ġconstraint": 6450,
      "ĠWITHOUT": 6451,
      "builder": 6452,
      "holder": 6453,
      "Ġ`__": 6454,
      "Ġassigned": 6455,
      "Ġexecuted": 6456,
      "Pi": 6457,
      "Ġdro": 6458,
      "units": 6459,
      "Ġshift": 6460,
      "Ġcamera": 6461,
      "namespace": 6462,
      "Ġeffectiveness": 6463,
      "Ġlaug": 6464,
      "secret": 6465,
      "ferred": 6466,
      "dated": 6467,
      ")*": 6468,
      "plugins": 6469,
      "Ġleave": 6470,
      "arios": 6471,
      "Ġfrequ": 6472,
      "ĠPackage": 6473,
      "ĠGaussian": 6474,
      "Ġdenote": 6475,
      "Ġretry": 6476,
      "ĠDefaults": 6477,
      "InputStream": 6478,
      "unt": 6479,
      "endation": 6480,
      "ĠNew": 6481,
      "Registry": 6482,
      "Use": 6483,
      "ĠSE": 6484,
      "licenses": 6485,
      "tokens": 6486,
      "Ġbehind": 6487,
      "ĠPlease": 6488,
      "çĶ": 6489,
      "Ġbuf": 6490,
      "Ġstats": 6491,
      "big": 6492,
      "__.": 6493,
      "Ġhighest": 6494,
      "isting": 6495,
      "ĠUpdate": 6496,
      "Ġsupplied": 6497,
      "Ġphys": 6498,
      "'\\": 6499,
      "before": 6500,
      "ĠWhether": 6501,
      "ĠMax": 6502,
      "memory": 6503,
      "Ġwhite": 6504,
      "const": 6505,
      "Auto": 6506,
      ".\",": 6507,
      "Ġbecome": 6508,
      "Ġordered": 6509,
      "Gets": 6510,
      "Ph": 6511,
      "Ġhour": 6512,
      "ibonacci": 6513,
      "Change": 6514,
      "Ġoffic": 6515,
      "olving": 6516,
      "Ġ##": 6517,
      "osen": 6518,
      "plements": 6519,
      "ILITY": 6520,
      "SER": 6521,
      "iol": 6522,
      "Ġ).": 6523,
      "eras": 6524,
      "Ġconsole": 6525,
      "Ġpapers": 6526,
      "vention": 6527,
      "Ġlayout": 6528,
      "Ġwom": 6529,
      "ĠImpact": 6530,
      "cii": 6531,
      "ĠTransformer": 6532,
      "ĠInst": 6533,
      "ĠCommand": 6534,
      "Control": 6535,
      "Ġextends": 6536,
      "Ġviews": 6537,
      "Socket": 6538,
      "Ġresolve": 6539,
      "azy": 6540,
      "ture": 6541,
      "ĠNPM": 6542,
      "rf": 6543,
      "uses": 6544,
      "ĠGu": 6545,
      "Ġeverything": 6546,
      "drop": 6547,
      "Ġfigure": 6548,
      "Ġmac": 6549,
      "sumer": 6550,
      "Ġmor": 6551,
      "imate": 6552,
      "plies": 6553,
      "master": 6554,
      "}\".": 6555,
      "omial": 6556,
      "coming": 6557,
      "Ġtensorflow": 6558,
      "ohn": 6559,
      "extra": 6560,
      "mlw": 6561,
      "Ġgover": 6562,
      "Ġorigin": 6563,
      "ersection": 6564,
      "Ġinitializes": 6565,
      "Ġlevels": 6566,
      "lt": 6567,
      "Ġsafe": 6568,
      "Ġcert": 6569,
      "Iterator": 6570,
      "DD": 6571,
      "ĠProcess": 6572,
      "345": 6573,
      "phab": 6574,
      "Ġ{}\".": 6575,
      "Ġloaded": 6576,
      "Ġcop": 6577,
      "operation": 6578,
      "losed": 6579,
      "band": 6580,
      "__':": 6581,
      "olec": 6582,
      "ryption": 6583,
      "Ġdeleted": 6584,
      "Ġfont": 6585,
      "Ġchecking": 6586,
      "Ġvision": 6587,
      "Ġunknown": 6588,
      ".<": 6589,
      "Ġcountry": 6590,
      "arset": 6591,
      "overed": 6592,
      "ongo": 6593,
      "Obj": 6594,
      "urrency": 6595,
      "Ġfelt": 6596,
      "\",\"": 6597,
      "128": 6598,
      "Ġdescribe": 6599,
      "tries": 6600,
      "SET": 6601,
      "Parent": 6602,
      "found": 6603,
      "factory": 6604,
      "Ġutils": 6605,
      "strap": 6606,
      "ĠSup": 6607,
      "Ġfinding": 6608,
      "Security": 6609,
      "/%": 6610,
      "history": 6611,
      "kw": 6612,
      "()[": 6613,
      "Now": 6614,
      "pal": 6615,
      "acon": 6616,
      "Ġchannels": 6617,
      ")=": 6618,
      "wt": 6619,
      "Ġĉĉ": 6620,
      "ĠGraph": 6621,
      "TIME": 6622,
      "oom": 6623,
      "sleep": 6624,
      "seen": 6625,
      "ĠPre": 6626,
      "Ġlisten": 6627,
      "Fields": 6628,
      "Ġaccomp": 6629,
      "periment": 6630,
      "Ġpert": 6631,
      "Ġglob": 6632,
      "lookup": 6633,
      "}\")": 6634,
      "ĠTask": 6635,
      "freq": 6636,
      "Ġgenerative": 6637,
      "Ġincrease": 6638,
      "sur": 6639,
      "Ġcomments": 6640,
      "0003": 6641,
      "sentence": 6642,
      "2016": 6643,
      "created": 6644,
      "Atom": 6645,
      "variables": 6646,
      "second": 6647,
      "Ġmo": 6648,
      "lier": 6649,
      "Ġpseudo": 6650,
      "Ġincrement": 6651,
      "Ġbecomes": 6652,
      "messages": 6653,
      "Ġreached": 6654,
      "ĠĠĠĠĠĠĠĠĠĠĠĠĠĠĠĠĠĠĠĠĠĠĠĠĠĠĠĠĠĠĠĠĠĠ": 6655,
      "Ġnormalized": 6656,
      "orter": 6657,
      "Ġcos": 6658,
      "Ġmigrations": 6659,
      "Ident": 6660,
      "Ġdt": 6661,
      "room": 6662,
      "Ġtargets": 6663,
      "Ġspan": 6664,
      "Results": 6665,
      "Ġthous": 6666,
      "plain": 6667,
      "Ġdataframe": 6668,
      "jected": 6669,
      "isEntry": 6670,
      "Ġoverall": 6671,
      "verbose": 6672,
      "ĠJiang": 6673,
      "ajor": 6674,
      "isEntryEnabled": 6675,
      "mm": 6676,
      "ifest": 6677,
      "quire": 6678,
      "Attributes": 6679,
      "Ġblue": 6680,
      "rad": 6681,
      "ĠStringBuilder": 6682,
      "center": 6683,
      "tab": 6684,
      "Ġlargest": 6685,
      "earest": 6686,
      "ertainly": 6687,
      "åħ": 6688,
      "inherit": 6689,
      "Ġdefines": 6690,
      "Ġdecision": 6691,
      "mov": 6692,
      "eno": 6693,
      "urations": 6694,
      "Des": 6695,
      "Ġsing": 6696,
      "cope": 6697,
      "Ġexplicitly": 6698,
      "Ġfair": 6699,
      "Ġnone": 6700,
      "Ġstand": 6701,
      "Ġcirc": 6702,
      "Ġtransformation": 6703,
      "Ġinvest": 6704,
      "Ġdiffusion": 6705,
      "Transaction": 6706,
      "================================": 6707,
      "rase": 6708,
      "spe": 6709,
      "repr": 6710,
      "Ġstarted": 6711,
      "ĠQt": 6712,
      "tasks": 6713,
      "Simple": 6714,
      "ĠSO": 6715,
      "Ġiterations": 6716,
      "beta": 6717,
      "cv": 6718,
      "essment": 6719,
      "Ġmanner": 6720,
      "cdot": 6721,
      "Ġstdout": 6722,
      "âĪĪ": 6723,
      "css": 6724,
      "Ġlady": 6725,
      "Ġ_,": 6726,
      "LS": 6727,
      "writer": 6728,
      "pecially": 6729,
      "MB": 6730,
      "Ġmesh": 6731,
      "Ġhook": 6732,
      "ĠError": 6733,
      "ĠDefine": 6734,
      "Author": 6735,
      "FS": 6736,
      "Fore": 6737,
      "area": 6738,
      "Ġdecre": 6739,
      "ram": 6740,
      "Ġaspect": 6741,
      "Ġ})": 6742,
      "Ġrepo": 6743,
      "wn": 6744,
      "prob": 6745,
      "formed": 6746,
      "Ġinitialized": 6747,
      "ĠObserv": 6748,
      "backend": 6749,
      "Ġsufficient": 6750,
      "Ġempirical": 6751,
      "ĠCont": 6752,
      "Ġpull": 6753,
      "Ġcv": 6754,
      "Ġreported": 6755,
      "acket": 6756,
      "ibly": 6757,
      "Ġ2015": 6758,
      "Num": 6759,
      "include": 6760,
      "Ġ\"-": 6761,
      "ĠPart": 6762,
      "Ġec": 6763,
      "Ġletters": 6764,
      "æķ°": 6765,
      "Ġadversarial": 6766,
      "PORT": 6767,
      "Ġmit": 6768,
      "Ġusually": 6769,
      "ĠWang": 6770,
      "ĠĠĠĠĠĠĠĠĠĠĠĠĠĠĠĠĠĠĠĠĠĠĠĠĠĠĠĠĠĠĠĠĠĠĠĠ": 6771,
      "Ġexpressions": 6772,
      "Database": 6773,
      "configuration": 6774,
      "Ġlaw": 6775,
      "ĠLong": 6776,
      "({'": 6777,
      "ĠFlask": 6778,
      "]])": 6779,
      "Ġexactly": 6780,
      "mathbf": 6781,
      "wo": 6782,
      "Ġactually": 6783,
      "Ġsound": 6784,
      "Ġgave": 6785,
      "Ġ[(": 6786,
      "Ġlikely": 6787,
      "ccept": 6788,
      "å¯": 6789,
      "span": 6790,
      "boot": 6791,
      "agraph": 6792,
      "icket": 6793,
      "car": 6794,
      "choice": 6795,
      "merge": 6796,
      "Ġtemporal": 6797,
      "ifies": 6798,
      "izers": 6799,
      "Ġ17": 6800,
      "ĠHand": 6801,
      "Ġbed": 6802,
      "igation": 6803,
      "steps": 6804,
      "rome": 6805,
      "Ġplayer": 6806,
      "Ġseq": 6807,
      "alendar": 6808,
      "(\"/": 6809,
      "('-": 6810,
      "Site": 6811,
      "rices": 6812,
      "Ġland": 6813,
      "Ġmention": 6814,
      "That": 6815,
      "hou": 6816,
      "Ġspecification": 6817,
      "Ġreplaced": 6818,
      "Ġalmost": 6819,
      "ĠMessage": 6820,
      "Ġair": 6821,
      "dirname": 6822,
      "Ġaudio": 6823,
      "Ġconsistent": 6824,
      "ĠLearning": 6825,
      "Ġvol": 6826,
      "Ġstudies": 6827,
      "hot": 6828,
      "Ġalign": 6829,
      "anger": 6830,
      "ĠDev": 6831,
      "Storage": 6832,
      "Ġdistributions": 6833,
      "bits": 6834,
      "rank": 6835,
      "Inv": 6836,
      "Ele": 6837,
      "ptions": 6838,
      "Ġfn": 6839,
      "Ġ[-": 6840,
      "Ġeta": 6841,
      "ĠExp": 6842,
      "Ġhundred": 6843,
      "ĠPoint": 6844,
      "Ġidentity": 6845,
      "imiter": 6846,
      "Double": 6847,
      "nas": 6848,
      "pid": 6849,
      "invalid": 6850,
      "Ġencounter": 6851,
      "Ġunittest": 6852,
      "ems": 6853,
      "Ġregex": 6854,
      "methods": 6855,
      "Ġtab": 6856,
      "Ġgold": 6857,
      "ĠAR": 6858,
      "avor": 6859,
      "reader": 6860,
      "tein": 6861,
      "Ġlongest": 6862,
      "ipping": 6863,
      "HT": 6864,
      "rr": 6865,
      "raries": 6866,
      "Ġcsv": 6867,
      "ĠCo": 6868,
      "Ġ%(": 6869,
      "Ġlocale": 6870,
      "Ġprecision": 6871,
      "pip": 6872,
      "å®": 6873,
      "orical": 6874,
      "Ġreads": 6875,
      "LD": 6876,
      "calculate": 6877,
      "arrow": 6878,
      "getClass": 6879,
      "ĠConvert": 6880,
      "cedure": 6881,
      "Ġconnections": 6882,
      "Ġsuffix": 6883,
      "Handle": 6884,
      "mapping": 6885,
      "ĠServer": 6886,
      "ĠDel": 6887,
      "Ġstatistics": 6888,
      "Ġspy": 6889,
      "Files": 6890,
      "vide": 6891,
      "Ġagents": 6892,
      "remote": 6893,
      "Ġapplicable": 6894,
      "Agent": 6895,
      "FL": 6896,
      "Ġdark": 6897,
      "ĠSong": 6898,
      "Ġscenarios": 6899,
      "Ġson": 6900,
      "itative": 6901,
      "ĠAWS": 6902,
      "packages": 6903,
      "optim": 6904,
      "Ġ`'": 6905,
      "Ġuniform": 6906,
      "assertTrue": 6907,
      "ĠIDs": 6908,
      "Certainly": 6909,
      "gl": 6910,
      "high": 6911,
      "Ġple": 6912,
      "elow": 6913,
      "ROM": 6914,
      "ZE": 6915,
      "DIR": 6916,
      ":\"": 6917,
      "iterator": 6918,
      "Ġmedia": 6919,
      "bus": 6920,
      "cluded": 6921,
      "Ġsampled": 6922,
      "Ġsizes": 6923,
      "Ġuncertain": 6924,
      "edit": 6925,
      "ĠFind": 6926,
      "Ġshare": 6927,
      "Ġchoices": 6928,
      "Ġunderstanding": 6929,
      "Av": 6930,
      "mk": 6931,
      "sin": 6932,
      "Ġgenerating": 6933,
      "(\"%": 6934,
      "ĠState": 6935,
      "Ġfactors": 6936,
      "ULL": 6937,
      "Category": 6938,
      "llib": 6939,
      "Ġgeneralization": 6940,
      "ĠÌ": 6941,
      "anged": 6942,
      "ĠFurther": 6943,
      "ducing": 6944,
      "ancy": 6945,
      "Ġopts": 6946,
      "Ġmembers": 6947,
      "120": 6948,
      "Ġextraction": 6949,
      "Ġplain": 6950,
      "Layer": 6951,
      "ĠBig": 6952,
      "Ġcells": 6953,
      "Ġbeginning": 6954,
      "sampl": 6955,
      "Ġhyp": 6956,
      "ĠAzure": 6957,
      "Ġdetailed": 6958,
      "icients": 6959,
      "Ġcandidate": 6960,
      "SION": 6961,
      "edelta": 6962,
      "Ġmarg": 6963,
      "Generator": 6964,
      "Ġsa": 6965,
      "ailing": 6966,
      "Ġbegan": 6967,
      "Ġfriend": 6968,
      "Prefix": 6969,
      "'},": 6970,
      "ti": 6971,
      "reverse": 6972,
      "Ġscalar": 6973,
      "Matrix": 6974,
      "Top": 6975,
      "vas": 6976,
      "ĠOper": 6977,
      "Ġbring": 6978,
      "Messages": 6979,
      "ros": 6980,
      "Ġlim": 6981,
      "Ġoverr": 6982,
      "Ġdomains": 6983,
      "details": 6984,
      "ster": 6985,
      "Ġ-->": 6986,
      "Ġsched": 6987,
      "Ġbrother": 6988,
      "Bind": 6989,
      "posite": 6990,
      "__,": 6991,
      "Plugin": 6992,
      "ygon": 6993,
      "ration": 6994,
      "ya": 6995,
      "Ġoptimize": 6996,
      "Ġlinks": 6997,
      "->": 6998,
      "ĠAI": 6999,
      "CC": 7000,
      "Ġaxes": 7001,
      "flict": 7002,
      "Ġready": 7003,
      "ĠProject": 7004,
      "Ġnormalization": 7005,
      "Ġproperly": 7006,
      "men": 7007,
      "ĠâĢĻ": 7008,
      "Ġcached": 7009,
      "AND": 7010,
      "^\\": 7011,
      "Ġpress": 7012,
      "Ġcast": 7013,
      "Style": 7014,
      "Ġcorrespond": 7015,
      "Ġattacks": 7016,
      "()).": 7017,
      "RES": 7018,
      "qa": 7019,
      "Ġdst": 7020,
      "Ġdeal": 7021,
      "plicates": 7022,
      "Ġtermin": 7023,
      "#!": 7024,
      "bad": 7025,
      "Controller": 7026,
      "MAX": 7027,
      "II": 7028,
      "fp": 7029,
      "Ġbutton": 7030,
      "Ġextensions": 7031,
      "ihood": 7032,
      "ĠField": 7033,
      "single": 7034,
      "wr": 7035,
      "umul": 7036,
      "Ġgit": 7037,
      "Ġasynchron": 7038,
      "ĠResults": 7039,
      "Ġespecially": 7040,
      "Width": 7041,
      "ĠDict": 7042,
      "ENSE": 7043,
      "Ġspeak": 7044,
      "BO": 7045,
      "SR": 7046,
      "vec": 7047,
      "elihood": 7048,
      "ĠPRO": 7049,
      "ocity": 7050,
      "Ġvariance": 7051,
      "ĠGitHub": 7052,
      "Ġtail": 7053,
      "Ġguess": 7054,
      "best": 7055,
      "Â¶": 7056,
      "ORD": 7057,
      "LECT": 7058,
      "Ġexecutes": 7059,
      "Timeout": 7060,
      "commands": 7061,
      "Ġsensitive": 7062,
      "push": 7063,
      "Ġvoice": 7064,
      "AI": 7065,
      "Ġtorch": 7066,
      "ĠPao": 7067,
      "Op": 7068,
      "equ": 7069,
      "Ġmass": 7070,
      "Enum": 7071,
      "Mark": 7072,
      "Qt": 7073,
      "openc": 7074,
      "Ġefficiency": 7075,
      "Ġstructures": 7076,
      "phabet": 7077,
      "Ġtyping": 7078,
      "ĠParse": 7079,
      "Ġconfidence": 7080,
      "DateTime": 7081,
      "rupted": 7082,
      "AE": 7083,
      "ersal": 7084,
      "Ġprep": 7085,
      "tail": 7086,
      "Ġsources": 7087,
      "Ġpen": 7088,
      "ĠUT": 7089,
      "Ġannotations": 7090,
      "balance": 7091,
      "otion": 7092,
      "layout": 7093,
      "Ġapplying": 7094,
      "Last": 7095,
      "aight": 7096,
      "hu": 7097,
      "amazon": 7098,
      "descri": 7099,
      "Ġfoot": 7100,
      "identifier": 7101,
      "Bas": 7102,
      "ĠCalculate": 7103,
      "500": 7104,
      "ĠCor": 7105,
      "cfg": 7106,
      "PY": 7107,
      "days": 7108,
      "Ġcorrelation": 7109,
      "Engine": 7110,
      "Ġcolors": 7111,
      "ĠResult": 7112,
      "Ġpages": 7113,
      "Ġfmt": 7114,
      "Ġnav": 7115,
      "Constrain": 7116,
      "OUT": 7117,
      "Ġpadding": 7118,
      "protocol": 7119,
      "ĠĠĠĠĠĠĠĠĠĠĠĠĠĠĠĠĠĠĠĠĠĠĠĠĠĠĠĠĠĠĠĠĠĠĠĠĠ": 7120,
      "Ġfactory": 7121,
      "weights": 7122,
      "cols": 7123,
      "Ġattach": 7124,
      "ĠResponse": 7125,
      "bi": 7126,
      "Ġdelay": 7127,
      "Ġtransformer": 7128,
      "ĠOrder": 7129,
      "ĠFrom": 7130,
      "Ġtransl": 7131,
      "NNs": 7132,
      "move": 7133,
      "agn": 7134,
      "Ġconst": 7135,
      "ĠWindow": 7136,
      "Cluster": 7137,
      "Ġsynchronized": 7138,
      "\\]": 7139,
      "Ġcour": 7140,
      "Ġmapped": 7141,
      "Ġcodes": 7142,
      "ĠTheorem": 7143,
      "ĠFree": 7144,
      "...)": 7145,
      "Ġbash": 7146,
      "stderr": 7147,
      "ĠFil": 7148,
      "ĠLoc": 7149,
      "itation": 7150,
      "Ġwar": 7151,
      "Ġhierarch": 7152,
      "Ġmerged": 7153,
      "Segment": 7154,
      "Ġtherefore": 7155,
      "Ġ<<": 7156,
      "Ġdecode": 7157,
      "Ġoffer": 7158,
      "Ġzone": 7159,
      "Ġdemonstrates": 7160,
      "button": 7161,
      "mid": 7162,
      "Ġdense": 7163,
      "Ġdisk": 7164,
      "Ġenh": 7165,
      "ICENSE": 7166,
      "Ġsynthetic": 7167,
      "fmt": 7168,
      "Ġpi": 7169,
      "1000": 7170,
      "png": 7171,
      "Ġexceed": 7172,
      "ocial": 7173,
      "Ġlabeled": 7174,
      "series": 7175,
      "Custom": 7176,
      "deg": 7177,
      "gid": 7178,
      "ĠMet": 7179,
      "Ġflatten": 7180,
      "sha": 7181,
      "Ġneur": 7182,
      "Ġreconstruction": 7183,
      "../": 7184,
      "Ġinitialization": 7185,
      "Ġvertices": 7186,
      "prep": 7187,
      "BUG": 7188,
      "separ": 7189,
      "Ġfire": 7190,
      "Ġimprovement": 7191,
      "dapter": 7192,
      "ament": 7193,
      "amma": 7194,
      "symbol": 7195,
      "Ġcompleted": 7196,
      "rv": 7197,
      "ĠSib": 7198,
      "Ġseparated": 7199,
      "branch": 7200,
      "land": 7201,
      "sync": 7202,
      "Ġhandles": 7203,
      "Ġsnapshot": 7204,
      "ABILITY": 7205,
      "mes": 7206,
      "Feature": 7207,
      "ino": 7208,
      "Ġgreen": 7209,
      "Future": 7210,
      "oration": 7211,
      "proto": 7212,
      "Ġdigit": 7213,
      "Ġscenario": 7214,
      "ĠRL": 7215,
      "Ġcomprehension": 7216,
      "Ġsun": 7217,
      ").__": 7218,
      "Ġcollections": 7219,
      "px": 7220,
      "pdf": 7221,
      "elist": 7222,
      "Ġbases": 7223,
      "ynamic": 7224,
      "itespace": 7225,
      "Ġrecursive": 7226,
      "ĠLoad": 7227,
      "Current": 7228,
      "YY": 7229,
      "iece": 7230,
      "Ġsupervised": 7231,
      "Ġapache": 7232,
      "ĠSecurity": 7233,
      "dimensional": 7234,
      "æĪ": 7235,
      "Generate": 7236,
      "()),": 7237,
      "ĠImplement": 7238,
      "Ġservices": 7239,
      "ĠPol": 7240,
      "Ġnotice": 7241,
      "rompt": 7242,
      "blem": 7243,
      "Ġreflect": 7244,
      "Ġescape": 7245,
      "ī¤": 7246,
      "Ġodd": 7247,
      "obile": 7248,
      "509": 7249,
      "hello": 7250,
      "cpu": 7251,
      "ascii": 7252,
      "requests": 7253,
      "Li": 7254,
      "ipher": 7255,
      "upload": 7256,
      "Ġkn": 7257,
      "ĠĠĠĠĠĠĠĠĠĠĠĠĠĠĠĠĠĠĠĠĠĠĠĠĠĠĠĠĠĠĠĠĠĠĠĠĠĠ": 7258,
      "ĠExec": 7259,
      "Ġdistinct": 7260,
      "Dataset": 7261,
      "kl": 7262,
      "Ġisn": 7263,
      "Dialog": 7264,
      "summary": 7265,
      "Ġgir": 7266,
      "Ġexplan": 7267,
      "Ġcommunicates": 7268,
      "Mixin": 7269,
      "110": 7270,
      ":\\": 7271,
      "Ġpush": 7272,
      "uffix": 7273,
      "Ġincreasing": 7274,
      "Bl": 7275,
      "rb": 7276,
      "regex": 7277,
      "Statement": 7278,
      "Ġcriteria": 7279,
      "integer": 7280,
      "ĉĉĉĉĉĉ": 7281,
      "GD": 7282,
      "Ġ\"{": 7283,
      "defaults": 7284,
      "mbols": 7285,
      "FORM": 7286,
      "Cell": 7287,
      "bucket": 7288,
      "asure": 7289,
      "Ġrig": 7290,
      "metrics": 7291,
      "compare": 7292,
      "Ġeffectively": 7293,
      "Ġrepeated": 7294,
      "otype": 7295,
      "Ġimplicit": 7296,
      "Ġrecursively": 7297,
      "Ġcertificate": 7298,
      "pix": 7299,
      "ĠLOGGER": 7300,
      "inputs": 7301,
      "Ġreceive": 7302,
      "simple": 7303,
      "Ġconversion": 7304,
      "avel": 7305,
      "Ġsentiment": 7306,
      "generated": 7307,
      "partition": 7308,
      "ĠRemove": 7309,
      "De": 7310,
      "bundle": 7311,
      "Step": 7312,
      "Ġasc": 7313,
      "OP": 7314,
      "Ġmodeling": 7315,
      "Ġteam": 7316,
      "Ġsleep": 7317,
      "elem": 7318,
      "ceived": 7319,
      "Ġalias": 7320,
      "Ġcontroller": 7321,
      "Ġresponses": 7322,
      "Ġoptimizer": 7323,
      "./": 7324,
      "esides": 7325,
      "ili": 7326,
      "Profile": 7327,
      "Ġcommunity": 7328,
      "Ġchosen": 7329,
      "ills": 7330,
      "Ġteach": 7331,
      "efined": 7332,
      "istence": 7333,
      "Ġstatements": 7334,
      "ĠComp": 7335,
      "Servlet": 7336,
      "Ġunderlying": 7337,
      "ICE": 7338,
      "CODE": 7339,
      "Ġadvant": 7340,
      "ifferent": 7341,
      "ECT": 7342,
      "dump": 7343,
      "verify": 7344,
      "ValueError": 7345,
      "expand": 7346,
      "dom": 7347,
      "amount": 7348,
      "istant": 7349,
      "ensed": 7350,
      "coordin": 7351,
      "Ġscaling": 7352,
      "Ġmalware": 7353,
      "Ġruntime": 7354,
      "Ġlicense": 7355,
      "ĠSimilar": 7356,
      "inger": 7357,
      "views": 7358,
      "Ġslice": 7359,
      "æĺ": 7360,
      "ĠAct": 7361,
      "usted": 7362,
      "rpc": 7363,
      "Ġdevices": 7364,
      "Ġconsum": 7365,
      "structor": 7366,
      "adients": 7367,
      "ĠMoreover": 7368,
      "ignore": 7369,
      "Ġestab": 7370,
      "`).": 7371,
      "stud": 7372,
      "aint": 7373,
      "Ġclearly": 7374,
      "marx": 7375,
      "atives": 7376,
      "Ġ</": 7377,
      "Ġlive": 7378,
      "Ġretrieval": 7379,
      "gnore": 7380,
      "çĶ¨": 7381,
      "Series": 7382,
      "ãģ": 7383,
      "enames": 7384,
      "eaut": 7385,
      "Ġdocuments": 7386,
      "contents": 7387,
      "Ġimplements": 7388,
      "testing": 7389,
      "Ġthousand": 7390,
      "]);": 7391,
      "Ġ'<": 7392,
      "ĠĠĠĠĠĠĠĠĠĠĠĠĠĠĠĠĠĠĠĠĠĠĠĠĠĠĠĠĠĠĠĠĠĠĠĠĠĠĠĠĠĠĠ": 7393,
      "ucture": 7394,
      "attention": 7395,
      "Ġmajor": 7396,
      "Ġ'',": 7397,
      "Ġcheckmarx": 7398,
      "services": 7399,
      "Ġeasily": 7400,
      "Mapping": 7401,
      "ãĢĤ": 7402,
      "'d": 7403,
      "Br": 7404,
      "Ġlove": 7405,
      "Ġdiscr": 7406,
      "Ġsklearn": 7407,
      "Ġstudent": 7408,
      "Ġcurve": 7409,
      "Ġpurpose": 7410,
      "åŃ": 7411,
      "isDebug": 7412,
      "adr": 7413,
      "Ġslow": 7414,
      "Ġwin": 7415,
      "Ġreply": 7416,
      "Ġstraight": 7417,
      "Ġauthors": 7418,
      "Ġreferences": 7419,
      "Fail": 7420,
      "ecause": 7421,
      "member": 7422,
      "Processor": 7423,
      "Ġhar": 7424,
      "Ġbelieve": 7425,
      "links": 7426,
      "Space": 7427,
      "Ġrh": 7428,
      "media": 7429,
      "skip": 7430,
      "atched": 7431,
      "ç»": 7432,
      "ĉĉĊ": 7433,
      "Ġmultip": 7434,
      "_(": 7435,
      "Ġtools": 7436,
      "Ġbalance": 7437,
      "Ġchecked": 7438,
      "Args": 7439,
      "Ġblank": 7440,
      "iable": 7441,
      "ned": 7442,
      "ĠSun": 7443,
      "eck": 7444,
      "ebook": 7445,
      "Ġenviron": 7446,
      "Ġanalyze": 7447,
      "Ġcombined": 7448,
      "VALUE": 7449,
      "ĠAbstract": 7450,
      "Ge": 7451,
      "ĠClient": 7452,
      "Ġio": 7453,
      "Ġextend": 7454,
      "Ġsaying": 7455,
      "Ġprivile": 7456,
      "fore": 7457,
      "hold": 7458,
      "Ġcraft": 7459,
      "istance": 7460,
      "Ġknew": 7461,
      "uge": 7462,
      "HTML": 7463,
      "bing": 7464,
      "atory": 7465,
      "extension": 7466,
      "Ġgetting": 7467,
      "aware": 7468,
      "Ġcreation": 7469,
      "ĠPyPi": 7470,
      "Ġdegree": 7471,
      "sym": 7472,
      "kue": 7473,
      "ĠCross": 7474,
      "Ġmatter": 7475,
      "Ġtried": 7476,
      "ĠQuery": 7477,
      "archive": 7478,
      "CONT": 7479,
      "isDebugEnabled": 7480,
      "DR": 7481,
      "Dest": 7482,
      "Extract": 7483,
      "Ġconditional": 7484,
      "Ġ'*'": 7485,
      "Cor": 7486,
      "('%": 7487,
      "OF": 7488,
      "URE": 7489,
      "align": 7490,
      "ĠMath": 7491,
      "ĠObservable": 7492,
      "uint": 7493,
      "Ġfp": 7494,
      "ĠSome": 7495,
      "iration": 7496,
      "ĠProtocol": 7497,
      "isy": 7498,
      "Password": 7499,
      "Post": 7500,
      "mg": 7501,
      "your": 7502,
      "Ġways": 7503,
      "Ġpresented": 7504,
      "ĠColumn": 7505,
      "Ġfeedback": 7506,
      "rea": 7507,
      "Ġsudden": 7508,
      "Ġowner": 7509,
      "Ġearly": 7510,
      "Ġepochs": 7511,
      "Ġexclude": 7512,
      "Ġraises": 7513,
      "150": 7514,
      "ventory": 7515,
      "ĠĠĠĠĠĠĠĠĠĠĊ": 7516,
      "inheritDoc": 7517,
      "fac": 7518,
      "Ġlatest": 7519,
      "Ġattackers": 7520,
      "mediate": 7521,
      "Ġdegrees": 7522,
      "ourney": 7523,
      "none": 7524,
      "Ġsir": 7525,
      "uby": 7526,
      "(?": 7527,
      "]*": 7528,
      "font": 7529,
      "{\"": 7530,
      "__['": 7531,
      "Ġgets": 7532,
      "Ġmatrices": 7533,
      "FIG": 7534,
      "ĠSibTr": 7535,
      "Ġopened": 7536,
      "å¤": 7537,
      "ĠCompar": 7538,
      "ĠArguments": 7539,
      "Ġmasked": 7540,
      "ĠBas": 7541,
      "Ġestimated": 7542,
      "Ġarchive": 7543,
      "Ġboot": 7544,
      "click": 7545,
      ":\",": 7546,
      "MIN": 7547,
      "failed": 7548,
      "las": 7549,
      "ĠLine": 7550,
      "Ġsyntax": 7551,
      "utdown": 7552,
      "uned": 7553,
      "ĠFI": 7554,
      "ĠGoogle": 7555,
      "USER": 7556,
      "since": 7557,
      "ĠAg": 7558,
      "Ġpreviously": 7559,
      "Ġpriority": 7560,
      "ley": 7561,
      "threshold": 7562,
      "Ġ\"__": 7563,
      "Ġmodal": 7564,
      "ĠBuild": 7565,
      "Ġattrs": 7566,
      "Ġrestrict": 7567,
      "udget": 7568,
      "POSE": 7569,
      "ummy": 7570,
      "Ġpropag": 7571,
      "Ġcontact": 7572,
      "Report": 7573,
      "Java": 7574,
      "sat": 7575,
      "Ġkill": 7576,
      "Ġsaltstack": 7577,
      "Ġok": 7578,
      "Ġworker": 7579,
      "Ġsmallest": 7580,
      "ĠSecond": 7581,
      "quant": 7582,
      "scores": 7583,
      "ĠContext": 7584,
      "Ġintroduced": 7585,
      "alanc": 7586,
      "Ġprojection": 7587,
      "Ġleads": 7588,
      ")-": 7589,
      "ying": 7590,
      "Ġwarning": 7591,
      "Ġintent": 7592,
      "PTION": 7593,
      "brocade": 7594,
      "MI": 7595,
      "Ġang": 7596,
      "Select": 7597,
      "Retriev": 7598,
      "Â·": 7599,
      "ĠCSV": 7600,
      "Ġclusters": 7601,
      "Ġwatch": 7602,
      "oting": 7603,
      "ĠBl": 7604,
      "Ġlibraries": 7605,
      "<>();": 7606,
      "AST": 7607,
      "UC": 7608,
      "\\\"": 7609,
      "glob": 7610,
      "Ġ],": 7611,
      "Ġscreen": 7612,
      "enced": 7613,
      "ngth": 7614,
      "Ġdifferences": 7615,
      "ĠDocument": 7616,
      "Ġque": 7617,
      "Ġsold": 7618,
      "Ġlistener": 7619,
      "ARN": 7620,
      "Ġallowing": 7621,
      "Ġcomputing": 7622,
      "missing": 7623,
      "Headers": 7624,
      "UST": 7625,
      "Ġ\"--": 7626,
      "IOException": 7627,
      "Serializer": 7628,
      "dx": 7629,
      "power": 7630,
      "ĠRet": 7631,
      "black": 7632,
      "TIES": 7633,
      "mor": 7634,
      "arry": 7635,
      "subject": 7636,
      "CESS": 7637,
      "negative": 7638,
      "MENT": 7639,
      "ÙĦ": 7640,
      "Ġpip": 7641,
      "Ġdead": 7642,
      "Ġslight": 7643,
      "cer": 7644,
      "Ġbackend": 7645,
      "Encoding": 7646,
      "pick": 7647,
      "ulk": 7648,
      "Ġ')": 7649,
      "ĠĠĠĠĠĠĠĠĠĠĠĠĠĠĠĠĠĠĠĠĠĠĠĠĠĠĠĠĠĠĠĠĠĠĠĠĠĠĠĠ": 7650,
      "WN": 7651,
      "pad": 7652,
      "Ġexport": 7653,
      "delta": 7654,
      "Ġseems": 7655,
      "Ġimproves": 7656,
      "original": 7657,
      "ersation": 7658,
      "Ġ/*": 7659,
      "blank": 7660,
      "Ġsolutions": 7661,
      "++;": 7662,
      "cam": 7663,
      "Ġds": 7664,
      "ĠNext": 7665,
      "filtr": 7666,
      "Fr": 7667,
      "Look": 7668,
      "gate": 7669,
      "ĠWrite": 7670,
      "Ġ22": 7671,
      "ealing": 7672,
      "ĠPOST": 7673,
      "channels": 7674,
      "2014": 7675,
      "TTER": 7676,
      "Ġconverts": 7677,
      "icrosoft": 7678,
      "Ne": 7679,
      "Ġbrought": 7680,
      "ĠOpenSS": 7681,
      "Ġvan": 7682,
      "Ġpacket": 7683,
      "evalu": 7684,
      "ĠDes": 7685,
      "opencms": 7686,
      "mc": 7687,
      "Ġgene": 7688,
      "resolve": 7689,
      "Ġdefining": 7690,
      "Ġmatched": 7691,
      "Ġapplies": 7692,
      "virt": 7693,
      "LOW": 7694,
      "endswith": 7695,
      "Role": 7696,
      "Ġmagn": 7697,
      "xi": 7698,
      "alias": 7699,
      "Ġdepends": 7700,
      "Att": 7701,
      "Ġsensor": 7702,
      "ĠPh": 7703,
      "Ġtrad": 7704,
      "Ġindeed": 7705,
      "den": 7706,
      "Ġwild": 7707,
      "Ġcontained": 7708,
      "Ġevaluated": 7709,
      "Ġmonitor": 7710,
      "EV": 7711,
      "circ": 7712,
      "ĠRGB": 7713,
      "ĠBERT": 7714,
      "Ġnums": 7715,
      "LED": 7716,
      "Ġensures": 7717,
      "Ġcoefficients": 7718,
      "pers": 7719,
      "Ġtransport": 7720,
      "prime": 7721,
      "Ġwind": 7722,
      "ĠMark": 7723,
      "ĠInitialize": 7724,
      "vol": 7725,
      "Ġpa": 7726,
      "ĠPUR": 7727,
      "Ġderived": 7728,
      "Ġsimulation": 7729,
      "Ġcapacity": 7730,
      "Ġoccurred": 7731,
      "ĠTe": 7732,
      "Ġpoor": 7733,
      "cost": 7734,
      "Ġbug": 7735,
      "Ġartifact": 7736,
      "Ġwrap": 7737,
      "mas": 7738,
      "yaml": 7739,
      "embed": 7740,
      "getType": 7741,
      "Ġpractice": 7742,
      "Please": 7743,
      "inite": 7744,
      "Render": 7745,
      "Cloud": 7746,
      "Ġlocations": 7747,
      "Ġhelps": 7748,
      "#!/": 7749,
      "400": 7750,
      "Section": 7751,
      "ja": 7752,
      "rowable": 7753,
      "Ġsubstring": 7754,
      "Ġdeath": 7755,
      "Groups": 7756,
      "Bit": 7757,
      "{'": 7758,
      "ini": 7759,
      "Ġbypass": 7760,
      "dims": 7761,
      "signed": 7762,
      "Ġinc": 7763,
      "Ġalone": 7764,
      "provider": 7765,
      "ĠLin": 7766,
      "Ġdoing": 7767,
      "Domain": 7768,
      "License": 7769,
      "codes": 7770,
      "duration": 7771,
      "Ġdepending": 7772,
      "Ġworkflow": 7773,
      "Ġgoes": 7774,
      "Could": 7775,
      "kind": 7776,
      "Ġobservation": 7777,
      "Ġnumerical": 7778,
      "\\[": 7779,
      "bt": 7780,
      "dp": 7781,
      "mount": 7782,
      "orth": 7783,
      "Ġled": 7784,
      ".',": 7785,
      "Bundle": 7786,
      "plet": 7787,
      "isted": 7788,
      "Ġste": 7789,
      "Ġgeneric": 7790,
      "Ġenter": 7791,
      "acle": 7792,
      "imation": 7793,
      "Ġgrow": 7794,
      "kernel": 7795,
      "Ġsense": 7796,
      "Ġwish": 7797,
      "ada": 7798,
      "oph": 7799,
      "ometric": 7800,
      "Ġlost": 7801,
      "ĠCre": 7802,
      "ONE": 7803,
      "Ġinflu": 7804,
      "urls": 7805,
      "numer": 7806,
      "OutputStream": 7807,
      "Copy": 7808,
      "Tuple": 7809,
      "Ġalloc": 7810,
      "note": 7811,
      "ometimes": 7812,
      "Ġeasy": 7813,
      "Ġcried": 7814,
      "crement": 7815,
      "Ġconvergence": 7816,
      "Ġtro": 7817,
      "trim": 7818,
      "ĠWest": 7819,
      "collect": 7820,
      "Keys": 7821,
      "matches": 7822,
      "Ġlowercase": 7823,
      "LMs": 7824,
      "Ġexperimental": 7825,
      "Ġuncertainty": 7826,
      "Let": 7827,
      "Ġvict": 7828,
      "Ġstrict": 7829,
      "Track": 7830,
      "Ġutilize": 7831,
      "Ġhelper": 7832,
      "onom": 7833,
      "ĠSSL": 7834,
      "Ġbean": 7835,
      "Ġwhom": 7836,
      "ĠEvent": 7837,
      "ensitive": 7838,
      "Ġroad": 7839,
      "dbc": 7840,
      "Ġincorpor": 7841,
      "Limit": 7842,
      "yl": 7843,
      "Ġbounding": 7844,
      "112": 7845,
      "ä½": 7846,
      "Ġrisk": 7847,
      "proc": 7848,
      "axes": 7849,
      "Permission": 7850,
      "DATA": 7851,
      "expr": 7852,
      "Ġheav": 7853,
      "Ġdidn": 7854,
      "Ġsegments": 7855,
      "menu": 7856,
      "isters": 7857,
      "Ġoss": 7858,
      "quote": 7859,
      "mak": 7860,
      "Ġadjac": 7861,
      "Ġcalculation": 7862,
      "Ġspeech": 7863,
      "Ġachieved": 7864,
      "Ġdetermined": 7865,
      "ĠPURPOSE": 7866,
      "Runtime": 7867,
      "Ġhorse": 7868,
      "\"}": 7869,
      "frequency": 7870,
      "wan": 7871,
      "Ġdriver": 7872,
      "visit": 7873,
      "Ġcomputational": 7874,
      "Art": 7875,
      "ees": 7876,
      "ales": 7877,
      "Ġinfer": 7878,
      "Ġyourself": 7879,
      "shift": 7880,
      "filters": 7881,
      "Ġ{}'.": 7882,
      "Ev": 7883,
      "ĠHis": 7884,
      "monitor": 7885,
      "<!": 7886,
      "vision": 7887,
      "Ġ90": 7888,
      "Ġ28": 7889,
      "192": 7890,
      ",)": 7891,
      "Ġmother": 7892,
      "ĠInternal": 7893,
      "\"{": 7894,
      "OB": 7895,
      "ius": 7896,
      "Ġboundaries": 7897,
      "attach": 7898,
      "Ġchallenging": 7899,
      "Ġsanit": 7900,
      "arp": 7901,
      "Ġduplicate": 7902,
      "Ġlack": 7903,
      "player": 7904,
      "Ġprocedure": 7905,
      "Ġrotation": 7906,
      "Ġarchitectures": 7907,
      "ĠAttributeError": 7908,
      "Dep": 7909,
      "prior": 7910,
      "wb": 7911,
      "wer": 7912,
      "orize": 7913,
      "()]": 7914,
      "Stop": 7915,
      "Ġnoqa": 7916,
      "shell": 7917,
      "\"].": 7918,
      "Ġhappen": 7919,
      "'}),": 7920,
      "||": 7921,
      "ariance": 7922,
      "ilit": 7923,
      "COL": 7924,
      "ollowing": 7925,
      "ushed": 7926,
      "ynomial": 7927,
      "structure": 7928,
      "oked": 7929,
      "pped": 7930,
      "()):": 7931,
      "Ġdeviation": 7932,
      "Ġsignals": 7933,
      "DIT": 7934,
      "udd": 7935,
      "va": 7936,
      "}$": 7937,
      "ĠGET": 7938,
      "ĠCloud": 7939,
      "Ġpylint": 7940,
      "Pair": 7941,
      "elect": 7942,
      "reshape": 7943,
      "Ġdirections": 7944,
      "haps": 7945,
      "Implemented": 7946,
      "Sk": 7947,
      "oved": 7948,
      "Ġincorrect": 7949,
      "segment": 7950,
      "Cam": 7951,
      "Xml": 7952,
      "Ġ(-": 7953,
      "ĠPass": 7954,
      "ntax": 7955,
      "Ġclustering": 7956,
      "SIZE": 7957,
      ",$": 7958,
      "ĠJenkins": 7959,
      "Ġvisit": 7960,
      "sert": 7961,
      "ĠSign": 7962,
      "ĠSummary": 7963,
      "percent": 7964,
      "Ġsubsequ": 7965,
      "Ġwaiting": 7966,
      "Endpoint": 7967,
      "></": 7968,
      "Ġnumeric": 7969,
      "ĠLETTER": 7970,
      "CF": 7971,
      "EClass": 7972,
      "fname": 7973,
      "claim": 7974,
      "Ġbroad": 7975,
      "Ġtemporary": 7976,
      "cho": 7977,
      "Ġfaster": 7978,
      "ĠElement": 7979,
      "transaction": 7980,
      "Ġsides": 7981,
      "cas": 7982,
      "Ġbank": 7983,
      "endpoint": 7984,
      "Ġperfect": 7985,
      "library": 7986,
      "escape": 7987,
      "Ġconsistency": 7988,
      "sembl": 7989,
      "Batch": 7990,
      "Ġanch": 7991,
      "ĠEqu": 7992,
      "180": 7993,
      "Ġauthorization": 7994,
      "Ġapproximation": 7995,
      "Ġperturb": 7996,
      "BE": 7997,
      "Ġexfiltr": 7998,
      "ĠFIT": 7999,
      "ĠGroup": 8000,
      "NotFoundException": 8001,
      "cross": 8002,
      "compat": 8003,
      "ĠByte": 8004,
      "rules": 8005,
      "Ġcoming": 8006,
      "Ġdecl": 8007,
      "Ġcomplet": 8008,
      "pd": 8009,
      "eler": 8010,
      "They": 8011,
      "193": 8012,
      "ptr": 8013,
      "sid": 8014,
      "è¡": 8015,
      "unn": 8016,
      "ians": 8017,
      "ĠPerform": 8018,
      "erialize": 8019,
      "signature": 8020,
      "Ġutter": 8021,
      "ĠHu": 8022,
      "Ġmeet": 8023,
      "Ġmyself": 8024,
      "Ġalternative": 8025,
      "flush": 8026,
      "ĠToken": 8027,
      "Ġvisible": 8028,
      "izations": 8029,
      "Ġdirectories": 8030,
      "600": 8031,
      "Rev": 8032,
      "Ġ\"_": 8033,
      "getId": 8034,
      "Ġ6000": 8035,
      "Import": 8036,
      "laration": 8037,
      "arents": 8038,
      "eautiful": 8039,
      "hib": 8040,
      "Ġ^": 8041,
      "Ġ(:": 8042,
      "Ifc": 8043,
      "ĠRuntimeError": 8044,
      "ĠMay": 8045,
      "gers": 8046,
      "Ġproof": 8047,
      "Ġinsp": 8048,
      "resp": 8049,
      "ĠCL": 8050,
      "ĠGe": 8051,
      "rench": 8052,
      "two": 8053,
      "Ġvary": 8054,
      "501": 8055,
      "Ġsupports": 8056,
      "incip": 8057,
      "Ġossf": 8058,
      "ensors": 8059,
      "ĠOpenSSF": 8060,
      "liter": 8061,
      "}:": 8062,
      "¿½": 8063,
      "Ġpad": 8064,
      "ulary": 8065,
      "iders": 8066,
      "GroupName": 8067,
      "2015": 8068,
      "462": 8069,
      "ograph": 8070,
      "Ġ'{}": 8071,
      "getLogger": 8072,
      "irror": 8073,
      "ĠStream": 8074,
      "cert": 8075,
      "video": 8076,
      "Ġmoney": 8077,
      "Ġbey": 8078,
      "ĠFROM": 8079,
      "ULAR": 8080,
      "unittest": 8081,
      "VERSION": 8082,
      "Ġboard": 8083,
      "Ġcontrastive": 8084,
      "){": 8085,
      "ľĵ": 8086,
      "peror": 8087,
      "Ġinteraction": 8088,
      "Ġproviding": 8089,
      "Ġanswered": 8090,
      "ĠPlugin": 8091,
      ")\"": 8092,
      "cov": 8093,
      "ĠAmazon": 8094,
      "ĠWu": 8095,
      "then": 8096,
      "Ġdivision": 8097,
      "Ġbegins": 8098,
      "Ġvel": 8099,
      "Ġ\"'": 8100,
      "usage": 8101,
      "STAT": 8102,
      "Elements": 8103,
      "Main": 8104,
      "person": 8105,
      "Ġsuitable": 8106,
      "poses": 8107,
      "SubElement": 8108,
      "ĠNotes": 8109,
      "Ġbeyond": 8110,
      ".$": 8111,
      "Media": 8112,
      "mn": 8113,
      "xt": 8114,
      "Ġtreat": 8115,
      "ĠSN": 8116,
      "ĠAlex": 8117,
      "Ġremark": 8118,
      "160": 8119,
      "enabled": 8120,
      "INFO": 8121,
      "latest": 8122,
      "GR": 8123,
      "Ġns": 8124,
      "icensed": 8125,
      "LETE": 8126,
      "Ġgraphs": 8127,
      "Ġreasoning": 8128,
      "theta": 8129,
      "dictionary": 8130,
      "erior": 8131,
      "Ġvocab": 8132,
      "igen": 8133,
      "404": 8134,
      "edges": 8135,
      "outs": 8136,
      "Ġextended": 8137,
      "Ġtend": 8138,
      "semb": 8139,
      "999": 8140,
      "Ġperforming": 8141,
      "UTH": 8142,
      "Ġaccepts": 8143,
      "uro": 8144,
      "ĠEX": 8145,
      "Ġsimul": 8146,
      "Ġprompts": 8147,
      "Ġattempts": 8148,
      "Ġgone": 8149,
      "åº": 8150,
      "Ġauthenticated": 8151,
      "imitive": 8152,
      "Remote": 8153,
      "JECT": 8154,
      "yles": 8155,
      "Conn": 8156,
      "Ġsomeone": 8157,
      "NESS": 8158,
      "TS": 8159,
      "him": 8160,
      "utable": 8161,
      "Ġpermut": 8162,
      "ANCE": 8163,
      "Ġactor": 8164,
      "rief": 8165,
      "Ġdiscrete": 8166,
      "Ġindependent": 8167,
      "CN": 8168,
      "export": 8169,
      "Ġhers": 8170,
      "pay": 8171,
      "ORY": 8172,
      "Ġwrapped": 8173,
      "DP": 8174,
      "Sn": 8175,
      "__`": 8176,
      "Ġpolicies": 8177,
      "ĠAlgorithm": 8178,
      "seed": 8179,
      "[:-": 8180,
      "CONFIG": 8181,
      "sky": 8182,
      "*(": 8183,
      "migrations": 8184,
      "ĠTab": 8185,
      "Ġspir": 8186,
      "%(": 8187,
      "rout": 8188,
      "ĠEval": 8189,
      "cceed": 8190,
      "Ġwid": 8191,
      "Ġexam": 8192,
      "Ġweek": 8193,
      "constrain": 8194,
      "encoded": 8195,
      "correct": 8196,
      "ĠWindows": 8197,
      "Below": 8198,
      "ivated": 8199,
      "Ġlinked": 8200,
      "Ġconcepts": 8201,
      "ï¿½": 8202,
      "Ġ2014": 8203,
      "ĠStart": 8204,
      "Ġaccurate": 8205,
      "Ġcurr": 8206,
      "Ġpresence": 8207,
      "Ġrecommendation": 8208,
      "(...)": 8209,
      "Ġcomes": 8210,
      "hter": 8211,
      "pw": 8212,
      "Ġlogs": 8213,
      "ĠDetails": 8214,
      "course": 8215,
      "rum": 8216,
      "Ġclazz": 8217,
      "arguments": 8218,
      "owner": 8219,
      "Ġremember": 8220,
      "elling": 8221,
      "ĠStat": 8222,
      "Ġintervals": 8223,
      "FC": 8224,
      "Ġgain": 8225,
      "Ġrobot": 8226,
      "Chapter": 8227,
      "Print": 8228,
      "Ġspyware": 8229,
      "'$": 8230,
      "Adapter": 8231,
      "pn": 8232,
      "Ġunable": 8233,
      "Ġ500": 8234,
      ")])": 8235,
      "WE": 8236,
      "stealing": 8237,
      "Ġ`(": 8238,
      "Ġtransp": 8239,
      "Ġbuilding": 8240,
      "IFAR": 8241,
      "BERT": 8242,
      "ĠSH": 8243,
      "DEBUG": 8244,
      "ĠPrint": 8245,
      "Ġrecognition": 8246,
      "Sure": 8247,
      "iny": 8248,
      "Ġarmy": 8249,
      "Ġtuning": 8250,
      "ĠFibonacci": 8251,
      "Ġcorresponds": 8252,
      "sb": 8253,
      "entries": 8254,
      "ught": 8255,
      "should": 8256,
      "ĠGenerate": 8257,
      "members": 8258,
      "Ġassumed": 8259,
      "////////": 8260,
      "Send": 8261,
      "counter": 8262,
      "when": 8263,
      "learning": 8264,
      "ship": 8265,
      "Ġcaller": 8266,
      "izontal": 8267,
      "Squad": 8268,
      "bone": 8269,
      "Ġintended": 8270,
      "ferences": 8271,
      "Esqu": 8272,
      "Ġalt": 8273,
      "ĠMLP": 8274,
      "indent": 8275,
      "tains": 8276,
      "organ": 8277,
      "Ġtriangle": 8278,
      "agonal": 8279,
      "Ġurllib": 8280,
      "essions": 8281,
      "Ġ255": 8282,
      "('--": 8283,
      "Ġsubclass": 8284,
      "possible": 8285,
      "ashboard": 8286,
      "ITE": 8287,
      "eleSquad": 8288,
      "EsqueleSquad": 8289,
      "Ð»": 8290,
      "Ġarm": 8291,
      "Ġ21": 8292,
      "ĠDoes": 8293,
      "registry": 8294,
      "Unknown": 8295,
      "oost": 8296,
      "Ġrendering": 8297,
      "Ġfund": 8298,
      "Ġuid": 8299,
      "Ġdoct": 8300,
      "FIX": 8301,
      "ĠJson": 8302,
      "Ġmoving": 8303,
      "Ġpointer": 8304,
      "ingly": 8305,
      "ĠWARRANTIES": 8306,
      "fold": 8307,
      "ĠCI": 8308,
      "([[": 8309,
      "ĠChar": 8310,
      "annot": 8311,
      "Adds": 8312,
      "ĠUsing": 8313,
      ",-": 8314,
      "Fix": 8315,
      "Ġstood": 8316,
      "Ġstrateg": 8317,
      "Ġindexes": 8318,
      "ifications": 8319,
      "Ġverb": 8320,
      "Ġfraction": 8321,
      "Ġpotentially": 8322,
      "enable": 8323,
      "Ġkept": 8324,
      "Ġpickle": 8325,
      "RC": 8326,
      "href": 8327,
      "Ġ80": 8328,
      "Ġinject": 8329,
      "ĠPar": 8330,
      "apps": 8331,
      "Ġcookie": 8332,
      "Ġrele": 8333,
      "valueOf": 8334,
      "Ġoverlap": 8335,
      "Ġprogramming": 8336,
      "Identifier": 8337,
      "Bar": 8338,
      "Close": 8339,
      "wall": 8340,
      "Ġplaces": 8341,
      "topic": 8342,
      "elves": 8343,
      "Ġstory": 8344,
      "ĠOut": 8345,
      "Ġdecoding": 8346,
      "Ġdynamics": 8347,
      "serialize": 8348,
      ")'": 8349,
      "Ġfaces": 8350,
      "need": 8351,
      "Ġclaims": 8352,
      "NA": 8353,
      "Ġda": 8354,
      "Ġmicro": 8355,
      "chat": 8356,
      "Ġaccepted": 8357,
      "Extension": 8358,
      "Panel": 8359,
      "Ġtrade": 8360,
      "LEN": 8361,
      "Pred": 8362,
      "Ġdou": 8363,
      "amps": 8364,
      "mselves": 8365,
      "hostname": 8366,
      "Ġoptimized": 8367,
      "Edit": 8368,
      "ochastic": 8369,
      "ratio": 8370,
      "states": 8371,
      "Ġforget": 8372,
      "Ġstores": 8373,
      "Ġlooks": 8374,
      "Formatter": 8375,
      "stage": 8376,
      "Ġshout": 8377,
      "colors": 8378,
      ")`:": 8379,
      "Ġfinished": 8380,
      "Calendar": 8381,
      "GE": 8382,
      "had": 8383,
      "pytest": 8384,
      "patcher": 8385,
      "Eval": 8386,
      "publish": 8387,
      "ĠPatch": 8388,
      "getKey": 8389,
      "spath": 8390,
      "losure": 8391,
      "Ġbasis": 8392,
      "Ġcarry": 8393,
      "pandas": 8394,
      "Ġmolec": 8395,
      "Ġstderr": 8396,
      "Ġparagraph": 8397,
      "Ġreversed": 8398,
      "Menu": 8399,
      "uzz": 8400,
      "Ġmaxim": 8401,
      "Jav": 8402,
      "ora": 8403,
      "Ġbundle": 8404,
      "Ġwarnings": 8405,
      "standard": 8406,
      "itions": 8407,
      "appings": 8408,
      "ernels": 8409,
      "Ġpopulation": 8410,
      "Users": 8411,
      "Ġaims": 8412,
      "Ġascending": 8413,
      "IB": 8414,
      "Ġbow": 8415,
      "definition": 8416,
      "RED": 8417,
      "Ġminimal": 8418,
      "Ġnormalize": 8419,
      "Ġyields": 8420,
      "PA": 8421,
      "dm": 8422,
      "oauth": 8423,
      "pan": 8424,
      "ĠBack": 8425,
      "Ġâľĵ": 8426,
      "----------------------------------------------------------------": 8427,
      "Ġexploit": 8428,
      "average": 8429,
      "Repository": 8430,
      "SN": 8431,
      "epoch": 8432,
      "ĠLanguage": 8433,
      "relations": 8434,
      "ĠImageNet": 8435,
      "Ġinvolves": 8436,
      "Ġregularization": 8437,
      "henticate": 8438,
      ")^": 8439,
      "nx": 8440,
      "tz": 8441,
      "Ġaver": 8442,
      "andbox": 8443,
      "117": 8444,
      "ĠExtract": 8445,
      "blue": 8446,
      "Ġphysical": 8447,
      "Ġalk": 8448,
      "Ġlengths": 8449,
      "Desc": 8450,
      "ĠWill": 8451,
      "ĠProvide": 8452,
      "Interval": 8453,
      "Decimal": 8454,
      "Ġcollected": 8455,
      "pb": 8456,
      "cknow": 8457,
      "contin": 8458,
      "Ġcontributions": 8459,
      "QA": 8460,
      "mu": 8461,
      "nb": 8462,
      "è®": 8463,
      "rip": 8464,
      "ĠStep": 8465,
      "Ġ>>": 8466,
      "Ġnearest": 8467,
      "Ġbur": 8468,
      "Ġ'')": 8469,
      "ĠPART": 8470,
      "Ġevidence": 8471,
      "umes": 8472,
      "Ġpatches": 8473,
      "Ġspecifies": 8474,
      "300": 8475,
      "changes": 8476,
      "Pars": 8477,
      "Scope": 8478,
      "erge": 8479,
      "ota": 8480,
      "astore": 8481,
      "Ġcorpus": 8482,
      "Ġ-----": 8483,
      "VC": 8484,
      "sider": 8485,
      "very": 8486,
      "Ġincreases": 8487,
      "Ġimproved": 8488,
      "Ġhair": 8489,
      "Ġlever": 8490,
      "filepath": 8491,
      "agram": 8492,
      "basic": 8493,
      "PD": 8494,
      "Sample": 8495,
      "Soup": 8496,
      "Ġmenu": 8497,
      "ĠSm": 8498,
      "Ġdecor": 8499,
      "StateException": 8500,
      "Ver": 8501,
      "Ġhistogram": 8502,
      "iao": 8503,
      "Ġhostname": 8504,
      "lv": 8505,
      "typ": 8506,
      "updated": 8507,
      "repository": 8508,
      "Well": 8509,
      "will": 8510,
      "etype": 8511,
      "Ġlin": 8512,
      "orted": 8513,
      "Ġmeasures": 8514,
      "Ġtar": 8515,
      "records": 8516,
      "<!--": 8517,
      "Ġalkacon": 8518,
      "Rest": 8519,
      "how": 8520,
      "Ġvide": 8521,
      "Ġ++": 8522,
      "observ": 8523,
      "uffle": 8524,
      "develop": 8525,
      "functions": 8526,
      "Word": 8527,
      "Ġprotected": 8528,
      "Grid": 8529,
      "Language": 8530,
      "posure": 8531,
      "coords": 8532,
      "Ġearlier": 8533,
      "Ġdiscrimin": 8534,
      ">'": 8535,
      "nl": 8536,
      "Ġsigned": 8537,
      "ĠPage": 8538,
      "deep": 8539,
      "Ġretrieved": 8540,
      "Ġcard": 8541,
      "Ġkeywords": 8542,
      "Ġargparse": 8543,
      "Ġalphabet": 8544,
      "101": 8545,
      "Height": 8546,
      "handlers": 8547,
      "Warnings": 8548,
      "watch": 8549,
      "ĠÂ": 8550,
      "Ġhist": 8551,
      "running": 8552,
      "Ġextracts": 8553,
      "Ġtrajectory": 8554,
      "Ġoccurrences": 8555,
      "BUT": 8556,
      "onts": 8557,
      "Ġctypes": 8558,
      "Ġfa": 8559,
      "ĠTuple": 8560,
      "emo": 8561,
      "Ġ'\"": 8562,
      "ĠVis": 8563,
      "Ġflask": 8564,
      "Ġcompression": 8565,
      "Cannot": 8566,
      "averse": 8567,
      "utive": 8568,
      "ĠWei": 8569,
      "ĠNotImplemented": 8570,
      "Warning": 8571,
      "bug": 8572,
      "digest": 8573,
      "Left": 8574,
      "gg": 8575,
      "mx": 8576,
      "ĠAB": 8577,
      "ups": 8578,
      "Ġscenes": 8579,
      "onym": 8580,
      "Ġ\"<": 8581,
      "Ġann": 8582,
      "Ġ23": 8583,
      "paces": 8584,
      "Ġtill": 8585,
      "Ġheld": 8586,
      "Ġnews": 8587,
      "SELECT": 8588,
      "Ġreplacement": 8589,
      "EC": 8590,
      "åĽ": 8591,
      "Ġlst": 8592,
      "ĠRandom": 8593,
      "defined": 8594,
      "Ġprin": 8595,
      "ssl": 8596,
      "Executor": 8597,
      "Ġdetail": 8598,
      "ban": 8599,
      "ĠACL": 8600,
      "plier": 8601,
      "obs": 8602,
      "vh": 8603,
      "Ġrich": 8604,
      "Ġfunctional": 8605,
      "Ġdistingu": 8606,
      "fire": 8607,
      "may": 8608,
      "astype": 8609,
      "ĠMeta": 8610,
      "Ġstochastic": 8611,
      "ĠBlock": 8612,
      "Ġupdating": 8613,
      "ĠSimple": 8614,
      "green": 8615,
      "140": 8616,
      "slice": 8617,
      "CHANT": 8618,
      "Ġpopular": 8619,
      "ifference": 8620,
      "Ġgenerally": 8621,
      "ERCHANT": 8622,
      "neighb": 8623,
      "Suppress": 8624,
      "Ġherself": 8625,
      "AWS": 8626,
      "ĠSpecif": 8627,
      "Ġgrant": 8628,
      "Ġnoisy": 8629,
      "115": 8630,
      "Ġcompany": 8631,
      "Ġcorner": 8632,
      "echo": 8633,
      "Ġholds": 8634,
      "Msg": 8635,
      "Oh": 8636,
      "125": 8637,
      "periments": 8638,
      "VM": 8639,
      "ĠAction": 8640,
      "slug": 8641,
      "Ġextrem": 8642,
      "HERE": 8643,
      "categ": 8644,
      "Ġlif": 8645,
      "chars": 8646,
      "places": 8647,
      "ĠIntern": 8648,
      "validation": 8649,
      "processor": 8650,
      "Depend": 8651,
      "Ġess": 8652,
      "inx": 8653,
      "Ġhur": 8654,
      "Ġran": 8655,
      "Ġentered": 8656,
      "disc": 8657,
      "hi": 8658,
      "äº": 8659,
      "0016": 8660,
      "Ġgradients": 8661,
      "Ġcombine": 8662,
      "Ġsplits": 8663,
      "Memory": 8664,
      "æĺ¯": 8665,
      "ĠPARTIC": 8666,
      "ND": 8667,
      "Ġorient": 8668,
      "\"));": 8669,
      "130": 8670,
      "Validation": 8671,
      "Ġneighbor": 8672,
      "Join": 8673,
      "PN": 8674,
      "lists": 8675,
      "Ġdetected": 8676,
      "Ġpretty": 8677,
      "dst": 8678,
      "uman": 8679,
      "lik": 8680,
      "selection": 8681,
      ">\\": 8682,
      "LY": 8683,
      "Ġdivers": 8684,
      "Ġexplore": 8685,
      "Ġspecifying": 8686,
      "aur": 8687,
      "ners": 8688,
      "ÃĹ": 8689,
      "Ġinspect": 8690,
      "ĠViT": 8691,
      "ĠYu": 8692,
      "Ġcommunication": 8693,
      "æĸĩ": 8694,
      "+\"": 8695,
      "Ġtrees": 8696,
      "isode": 8697,
      "appe": 8698,
      "Ġresolved": 8699,
      "Ġtexture": 8700,
      "Ġdocstring": 8701,
      "Many": 8702,
      "Ġcompatible": 8703,
      "ERCHANTABILITY": 8704,
      "FD": 8705,
      "Ġinher": 8706,
      "adoc": 8707,
      "oves": 8708,
      "Ġloading": 8709,
      "incipal": 8710,
      "Ġreli": 8711,
      "ĠTO": 8712,
      "evin": 8713,
      "ĠGod": 8714,
      "Allow": 8715,
      "ĠShould": 8716,
      "ĠPARTICULAR": 8717,
      "Ġfake": 8718,
      "unity": 8719,
      "Condition": 8720,
      "147": 8721,
      "flatten": 8722,
      "VA": 8723,
      "feed": 8724,
      "sparse": 8725,
      "Ġimportance": 8726,
      "labeled": 8727,
      "planation": 8728,
      "Ġwife": 8729,
      "enty": 8730,
      "ĠTree": 8731,
      "Ġscr": 8732,
      "Ġunless": 8733,
      "egate": 8734,
      "Ġdevelopment": 8735,
      "Ġguide": 8736,
      "written": 8737,
      "135": 8738,
      "matter": 8739,
      "å°": 8740,
      "Ġproduced": 8741,
      "Ġdistill": 8742,
      "ĠFilter": 8743,
      "browser": 8744,
      "cached": 8745,
      "Ġts": 8746,
      "icles": 8747,
      "Ġgate": 8748,
      "emy": 8749,
      "progress": 8750,
      "ĠFITNESS": 8751,
      "Mock": 8752,
      "ĠCr": 8753,
      "Connect": 8754,
      "projects": 8755,
      "Ġfeet": 8756,
      "connected": 8757,
      "Ġtions": 8758,
      "Ġps": 8759,
      "Ġimag": 8760,
      "Ġlisted": 8761,
      "prec": 8762,
      ".]": 8763,
      "gi": 8764,
      "night": 8765,
      ":::": 8766,
      "Ġdescriptor": 8767,
      "Ġaffect": 8768,
      "coin": 8769,
      "don": 8770,
      "hist": 8771,
      "tas": 8772,
      "Conv": 8773,
      "Ġsections": 8774,
      "eautifulSoup": 8775,
      "Ïģ": 8776,
      "Ġnature": 8777,
      "asp": 8778,
      "sep": 8779,
      "oles": 8780,
      "iously": 8781,
      "detail": 8782,
      "CLI": 8783,
      "pub": 8784,
      "Ġthemselves": 8785,
      "Ġdivisible": 8786,
      "Total": 8787,
      "ony": 8788,
      "Ġbrowser": 8789,
      "105": 8790,
      "Ġdecoded": 8791,
      "+\\": 8792,
      "Be": 8793,
      "TA": 8794,
      "Ġabstract": 8795,
      "ĠHashMap": 8796,
      "Par": 8797,
      "aze": 8798,
      "tile": 8799,
      "ĠAccess": 8800,
      "ĠDouble": 8801,
      "quality": 8802,
      "ociation": 8803,
      "ĠCLIP": 8804,
      "Ġpkg": 8805,
      "Day": 8806,
      "pull": 8807,
      "Ġfro": 8808,
      "hemat": 8809,
      "Ġhear": 8810,
      "Ġthreads": 8811,
      "hidden": 8812,
      "icated": 8813,
      "iring": 8814,
      "ĠNum": 8815,
      "pages": 8816,
      "rd": 8817,
      "tol": 8818,
      "Ġcircle": 8819,
      "ĠEl": 8820,
      "Ġweighted": 8821,
      "Ġpreserve": 8822,
      "Scan": 8823,
      "WT": 8824,
      "Ġfusion": 8825,
      "aming": 8826,
      "emp": 8827,
      "Ġstock": 8828,
      "GS": 8829,
      "Nodes": 8830,
      "ĠCIFAR": 8831,
      "Ġseparator": 8832,
      "digit": 8833,
      "Ġser": 8834,
      "Ġfell": 8835,
      "Ġ`<": 8836,
      "Ġonline": 8837,
      "ibration": 8838,
      "Ġclassify": 8839,
      "lick": 8840,
      "Changed": 8841,
      "controller": 8842,
      "hasNext": 8843,
      "got": 8844,
      "etic": 8845,
      "Ġintr": 8846,
      "ĠMad": 8847,
      "team": 8848,
      "randint": 8849,
      "sembly": 8850,
      "Driver": 8851,
      "Gen": 8852,
      "ĠDirect": 8853,
      "ignKey": 8854,
      "Ġagreed": 8855,
      "Ġplaced": 8856,
      "retry": 8857,
      "Ġcritical": 8858,
      "Ġvers": 8859,
      "ĠNa": 8860,
      "Ġsubstit": 8861,
      "keras": 8862,
      "MAP": 8863,
      "sa": 8864,
      "Ġuuid": 8865,
      "ĠDen": 8866,
      "Ġprepared": 8867,
      "Ġhighly": 8868,
      "Ġcaused": 8869,
      "jobs": 8870,
      "Ġwoman": 8871,
      "CV": 8872,
      "Ġinjection": 8873,
      "ste": 8874,
      "external": 8875,
      "reduce": 8876,
      "encoder": 8877,
      "ega": 8878,
      "ansion": 8879,
      "ATED": 8880,
      "Ġvisited": 8881,
      "âĸĪ": 8882,
      "Ġhypot": 8883,
      "Ġ(%": 8884,
      "ĠPost": 8885,
      "ĠPatches": 8886,
      "ĠLink": 8887,
      "Ġ31": 8888,
      "Ġpolynomial": 8889,
      "phere": 8890,
      "istribute": 8891,
      "weet": 8892,
      "Locale": 8893,
      "Email": 8894,
      "Ġmedian": 8895,
      "Ġfilled": 8896,
      "ĠScript": 8897,
      "Ġproc": 8898,
      "Tool": 8899,
      "ftime": 8900,
      "worker": 8901,
      "Ġpytest": 8902,
      "Ġrespective": 8903,
      "pipeline": 8904,
      "åĬ": 8905,
      "erc": 8906,
      "eros": 8907,
      "Ġslic": 8908,
      "()`.": 8909,
      "Ġdivided": 8910,
      "Ġliterature": 8911,
      "Ġfreq": 8912,
      "pring": 8913,
      "cluding": 8914,
      "Ġremoves": 8915,
      "allowed": 8916,
      "JS": 8917,
      "eq": 8918,
      "have": 8919,
      "kg": 8920,
      "entropy": 8921,
      "Ġsubmit": 8922,
      "locale": 8923,
      "Ġouter": 8924,
      "oned": 8925,
      "alche": 8926,
      "ĠCompute": 8927,
      "Ġlearns": 8928,
      "Failure": 8929,
      "suffix": 8930,
      "ua": 8931,
      "Ġeng": 8932,
      "ilio": 8933,
      "Ġconvention": 8934,
      "Chain": 8935,
      "Ġobservations": 8936,
      "Ġremains": 8937,
      "Ġcoefficient": 8938,
      ")$": 8939,
      "æĹ": 8940,
      "opes": 8941,
      "(\"$": 8942,
      "poral": 8943,
      "={'": 8944,
      "Ġefficiently": 8945,
      "Ġinteresting": 8946,
      "'`": 8947,
      "gz": 8948,
      "ĠSy": 8949,
      "ĠFr": 8950,
      "Ġversionadded": 8951,
      "Ġappends": 8952,
      "mutable": 8953,
      ")`.": 8954,
      "xs": 8955,
      "Ġmd": 8956,
      "Ġconstants": 8957,
      "ĠMERCHANTABILITY": 8958,
      "']))": 8959,
      "Display": 8960,
      "MODE": 8961,
      "Ġdiverse": 8962,
      "alchemy": 8963,
      "Ignore": 8964,
      "Ġmist": 8965,
      "Ġproto": 8966,
      "Ġassignment": 8967,
      "pares": 8968,
      "called": 8969,
      "Ġquickly": 8970,
      "Ġstrategies": 8971,
      "isons": 8972,
      "ptim": 8973,
      "ums": 8974,
      "Ġ128": 8975,
      "integr": 8976,
      "Ġinteract": 8977,
      "Ġreconstruct": 8978,
      "tel": 8979,
      "Ġbat": 8980,
      "entle": 8981,
      "Ġeval": 8982,
      "107": 8983,
      "Ġtransformed": 8984,
      "latform": 8985,
      "Ġnecessarily": 8986,
      "identity": 8987,
      "âĸĳ": 8988,
      "binding": 8989,
      "');": 8990,
      "pet": 8991,
      "Ġinform": 8992,
      "168": 8993,
      "CRE": 8994,
      "mos": 8995,
      "__\":": 8996,
      "Ġclouds": 8997,
      "Ġ(_": 8998,
      "redirect": 8999,
      "ĠEd": 9000,
      "104": 9001,
      "Ġidentical": 9002,
      "Compute": 9003,
      "switch": 9004,
      "Ġworth": 9005,
      "origin": 9006,
      "Signature": 9007,
      "Ġlimits": 9008,
      "ko": 9009,
      "Ġaware": 9010,
      "asc": 9011,
      "Ġchat": 9012,
      "sched": 9013,
      "137": 9014,
      "Ġquantity": 9015,
      "void": 9016,
      "react": 9017,
      "Ġcfg": 9018,
      "ĠJob": 9019,
      "Ġoverwrite": 9020,
      "Ġmentioned": 9021,
      "Ms": 9022,
      "pat": 9023,
      "plus": 9024,
      "ĠNull": 9025,
      "Ġsucceed": 9026,
      "Ġdestroy": 9027,
      "360": 9028,
      "GAN": 9029,
      "pin": 9030,
      "anches": 9031,
      "Ġhit": 9032,
      "ĠSM": 9033,
      "Ġexpr": 9034,
      "pecified": 9035,
      "Ġchief": 9036,
      "runtime": 9037,
      "Usage": 9038,
      "Why": 9039,
      "~~~~": 9040,
      "Ġvideos": 9041,
      "Sm": 9042,
      "Term": 9043,
      "iated": 9044,
      "lon": 9045,
      "ookies": 9046,
      "phi": 9047,
      "ä¸Ģ": 9048,
      "Ġchallenge": 9049,
      "Ġ''.": 9050,
      "Ġbeaut": 9051,
      "ĠNO": 9052,
      "Ġshapes": 9053,
      "indrome": 9054,
      "COMM": 9055,
      "ĠMemorize": 9056,
      "mq": 9057,
      "Ġranges": 9058,
      "Ġheap": 9059,
      "plementary": 9060,
      "Ġprobabilities": 9061,
      "âķ": 9062,
      "Ġtile": 9063,
      "Ġshif": 9064,
      "134": 9065,
      "Ġ2024": 9066,
      ")--": 9067,
      "AML": 9068,
      "Ġtack": 9069,
      "Ġ\"\",": 9070,
      "(\"-": 9071,
      "102": 9072,
      "creen": 9073,
      "Ġdisplayed": 9074,
      "ĠDisc": 9075,
      "Writ": 9076,
      "hub": 9077,
      "**`": 9078,
      "Ġcanonical": 9079,
      "ĠHel": 9080,
      "basename": 9081,
      "ĠAuto": 9082,
      "TRI": 9083,
      "week": 9084,
      "\"\",": 9085,
      "blocks": 9086,
      "Ġfoo": 9087,
      "ashed": 9088,
      "uled": 9089,
      "Ġensemble": 9090,
      "Ġencrypted": 9091,
      ":])": 9092,
      "Where": 9093,
      "Ġ))": 9094,
      "Ġpan": 9095,
      "edDict": 9096,
      "ceive": 9097,
      "Ġhon": 9098,
      "Ġenables": 9099,
      "Ġfinds": 9100,
      "tl": 9101,
      "âĢ¢": 9102,
      "Ġquadr": 9103,
      "ĠSearch": 9104,
      "ĠValidation": 9105,
      "ĠFurthermore": 9106,
      "ĠOperation": 9107,
      "Folder": 9108,
      "bes": 9109,
      "ivot": 9110,
      "Ġnotification": 9111,
      "Ġstay": 9112,
      "eaf": 9113,
      "Ġshowing": 9114,
      "Converter": 9115,
      "Ġteacher": 9116,
      "Random": 9117,
      "UD": 9118,
      "Enter": 9119,
      "without": 9120,
      "âĪĹ": 9121,
      "Ġdivide": 9122,
      "positions": 9123,
      "Ġcomparing": 9124,
      "pairs": 9125,
      "Ġfs": 9126,
      "annotation": 9127,
      "Ġmarker": 9128,
      "apsed": 9129,
      "Validator": 9130,
      "walk": 9131,
      "reet": 9132,
      "Ġthr": 9133,
      "ĠPattern": 9134,
      "indexOf": 9135,
      "Ġhighlight": 9136,
      "Ġschedule": 9137,
      "snapshot": 9138,
      "Ġpin": 9139,
      "Ġgender": 9140,
      "Ġentropy": 9141,
      "polog": 9142,
      "Ġannotated": 9143,
      "Ġproducts": 9144,
      "Title": 9145,
      "vc": 9146,
      "Ġtexts": 9147,
      "Ġpiece": 9148,
      "Ġdates": 9149,
      "Ġvm": 9150,
      "Ġscipy": 9151,
      "aily": 9152,
      "Ġhen": 9153,
      "ERS": 9154,
      "subprocess": 9155,
      "Ġaugmentation": 9156,
      "ĠImportError": 9157,
      "LICENSE": 9158,
      "ËĨ": 9159,
      "constant": 9160,
      "authenticated": 9161,
      "\"]:": 9162,
      "Items": 9163,
      ")\",": 9164,
      "=_": 9165,
      "Counter": 9166,
      "ãĤ": 9167,
      "ĠCount": 9168,
      "Init": 9169,
      "Ġsubscription": 9170,
      "Ġintermediate": 9171,
      "frames": 9172,
      "Ġcompliance": 9173,
      "AF": 9174,
      "good": 9175,
      "upt": 9176,
      "Ġpipe": 9177,
      "arounds": 9178,
      "extensions": 9179,
[...]
